{"!":0,"\"":1,"#":2,"$":3,"%":4,"&":5,"'":6,"(":7,")":8,"*":9,"+":10,",":11,"-":12,".":13,"/":14,"0":15,"1":16,"2":17,"3":18,"4":19,"5":20,"6":21,"7":22,"8":23,"9":24,":":25,";":26,"<":27,"=":28,">":29,"?":30,"@":31,"A":32,"B":33,"C":34,"D":35,"E":36,"F":37,"G":38,"H":39,"I":40,"J":41,"K":42,"L":43,"M":44,"N":45,"O":46,"P":47,"Q":48,"R":49,"S":50,"T":51,"U":52,"V":53,"W":54,"X":55,"Y":56,"Z":57,"[":58,"\\":59,"]":60,"^":61,"_":62,"`":63,"a":64,"b":65,"c":66,"d":67,"e":68,"f":69,"g":70,"h":71,"i":72,"j":73,"k":74,"l":75,"m":76,"n":77,"o":78,"p":79,"q":80,"r":81,"s":82,"t":83,"u":84,"v":85,"w":86,"x":87,"y":88,"z":89,"{":90,"|":91,"}":92,"~":93,"¡":94,"¢":95,"£":96,"¤":97,"¥":98,"¦":99,"§":100,"¨":101,"©":102,"ª":103,"«":104,"¬":105,"®":106,"¯":107,"°":108,"±":109,"²":110,"³":111,"´":112,"µ":113,"¶":114,"·":115,"¸":116,"¹":117,"º":118,"»":119,"¼":120,"½":121,"¾":122,"¿":123,"À":124,"Á":125,"Â":126,"Ã":127,"Ä":128,"Å":129,"Æ":130,"Ç":131,"È":132,"É":133,"Ê":134,"Ë":135,"Ì":136,"Í":137,"Î":138,"Ï":139,"Ð":140,"Ñ":141,"Ò":142,"Ó":143,"Ô":144,"Õ":145,"Ö":146,"×":147,"Ø":148,"Ù":149,"Ú":150,"Û":151,"Ü":152,"Ý":153,"Þ":154,"ß":155,"à":156,"á":157,"â":158,"ã":159,"ä":160,"å":161,"æ":162,"ç":163,"è":164,"é":165,"ê":166,"ë":167,"ì":168,"í":169,"î":170,"ï":171,"ð":172,"ñ":173,"ò":174,"ó":175,"ô":176,"õ":177,"ö":178,"÷":179,"ø":180,"ù":181,"ú":182,"û":183,"ü":184,"ý":185,"þ":186,"ÿ":187,"Ā":188,"ā":189,"Ă":190,"ă":191,"Ą":192,"ą":193,"Ć":194,"ć":195,"Ĉ":196,"ĉ":197,"Ċ":198,"ċ":199,"Č":200,"č":201,"Ď":202,"ď":203,"Đ":204,"đ":205,"Ē":206,"ē":207,"Ĕ":208,"ĕ":209,"Ė":210,"ė":211,"Ę":212,"ę":213,"Ě":214,"ě":215,"Ĝ":216,"ĝ":217,"Ğ":218,"ğ":219,"Ġ":220,"ġ":221,"Ģ":222,"ģ":223,"Ĥ":224,"ĥ":225,"Ħ":226,"ħ":227,"Ĩ":228,"ĩ":229,"Ī":230,"ī":231,"Ĭ":232,"ĭ":233,"Į":234,"į":235,"İ":236,"ı":237,"Ĳ":238,"ĳ":239,"Ĵ":240,"ĵ":241,"Ķ":242,"ķ":243,"ĸ":244,"Ĺ":245,"ĺ":246,"Ļ":247,"ļ":248,"Ľ":249,"ľ":250,"Ŀ":251,"ŀ":252,"Ł":253,"ł":254,"Ń":255,"he":256,"Ġt":257,"Ġa":258,"Ġs":259,"Ġw":260,"nd":261,"Ġthe":262,"čĊ":263,"ed":264,"Ġand":265,"Ġto":266,"Ġb":267,"in":268,"Ġh":269,"re":270,"Ġwa":271,"ou":272,"Ġf":273,"it":274,"Ġc":275,"Ġl":276,"Ġd":277,"er":278,"Ġhe":279,"Ġm":280,"Ġp":281,"ĠT":282,"Ġwas":283,"om":284,"OS":285,"EOS":286,"Ġ<":287,"Ġo":288,"ay":289,"ar":290,"is":291,"ing":292,"il":293,"Ġg":294,"id":295,"at":296,"Ġn":297,"ĠThe":298,"en":299,"Ġsa":300,"Ġha":301,"ĠS":302,"an":303,"im":304,"or":305,"on":306,"Ġit":307,"Ġth":308,"ll":309,"ĠH":310,"le":311,"ot":312,"et":313,"Ġher":314,"ir":315,"ĠHe":316,"ĠShe":317,"es":318,"ĠThey":319,"Ġin":320,"ut":321,"ver":322,"ow":323,"ck":324,"Ġe":325,"Ġy":326,"ld":327,"Ġu":328,"oo":329,"Ġsaid":330,"ig":331,"Ġr":332,"ily":333,"Ġbe":334,"am":335,"Ġst":336,"ĠI":337,"Ġ\"":338,"ce":339,"ke":340,"Ġshe":341,"ve":342,"pp":343,"ith":344,"Ġwith":345,"Lily":346,"Ġon":347,"Ġyou":348,"ri":349,"On":350,"ked":351,"Ġof":352,"nt":353,"ad":354,"Ġhis":355,"Ġpl":356,"Ġso":357,"very":358,"Ġday":359,"Ġthat":360,"st":361,"Ġplay":362,"Ġup":363,"Ġhad":364,"Ġthey":365,"ĠLily":366,"Ġwe":367,"Ġfor":368,"ĠB":369,"un":370,"The":371,"Ġmom":372,"el":373,"ould":374,"Ġli":375,"'s":376,"my":377,"ch":378,"Ġsh":379,"Ġwant":380,"Ġhapp":381,"Ġnot":382,"ent":383,"out":384,"her":385,"Ġdo":386,"itt":387,"Ġwh":388,"se":389,"ome":390,"Ġba":391,"Ġis":392,"Ġvery":393,"end":394,"ly":395,"ound":396,"Ġk":397,"ĠM":398,"ime":399,"ĠIt":400,"ht":401,"Ġne":402,"al":403,"Ġtime":404,"ittle":405,"Ġre":406,"Ġhappy":407,"Ġbig":408,"Ġthere":409,"Ġsm":410,"Ġlittle":411,"ry":412,"Ġbut":413,"Ġan":414,"Ġsaw":415,"ra":416,".\"":417,"riend":418,"Ġfriend":419,"ide":420,"Ġas":421,"ug":422,"One":423,"ake":424,"!\"":425,"Ġwere":426,"'t":427,"Ġloo":428,"ore":429,"ved":430,"ter":431,"Ġlo":432,"Ġtoo":433,"Ġse":434,"Once":435,"all":436,"Ġgo":437,"Ġare":438,"Ġbo":439,"ec":440,"Ġhim":441,"Ġwanted":442,"Ġthem":443,"ard":444,"ĠTim":445,"ill":446,"Ġj":447,"irl":448,"Ġout":449,"Ġat":450,"Ġtheir":451,"ur":452,"Ġupon":453,"Ġdid":454,"Ġgirl":455,"ĠA":456,"way":457,"ul":458,"Ġsp":459,"ind":460,"Ġsmil":461,"Ġcould":462,"hed":463,"ain":464,"Ġhave":465,"hen":466,"rom":467,"art":468,"Ġex":469,"Ġwent":470,"Ġcan":471,"hing":472,"ĠBen":473,"Ġar":474,"ĠTom":475,"ful":476,"ight":477,"ic":478,"Ġfriends":479,"ood":480,"um":481,"Ġkn":482,"lp":483,"ĠJ":484,"one":485,"?\"":486,"Ġnam":487,"Ġback":488,"You":489,"Ġsay":490,"Ġfun":491,"Ġhelp":492,"Ġall":493,"ark":494,"Ġcl":495,"Ġca":496,"Ġle":497,"Ġno":498,"Ġsc":499,"elt":500,"side":501,"op":502,"Ġman":503,"Ġal":504,"ick":505,"Ġlike":506,"Ġtoy":507,"Ġsmiled":508,"Ġloved":509,"Ġnamed":510,"Ġfelt":511,"ĠOne":512,"oug":513,"Ġsome":514,"Ġsee":515,"omet":516,"Ġlooked":517,"Ġasked":518,"ame":519,"Ġme":520,"Ġfe":521,"Ġbr":522,"ĠW":523,"Ġro":524,"ure":525,"Ġaround":526,"Ġbir":527,"Ġwould":528,"Ġfa":529,"Ġboy":530,"get":531,"ice":532,"ong":533,"ss":534,"ĠTimmy":535,"Ġsomet":536,"Ġwhat":537,"Ġbird":538,"Ġstart":539,"ade":540,"Ġag":541,"Ġwor":542,"ings":543,"Ġaway":544,"Ġran":545,"own":546,",\"":547,"Ġmake":548,"dd":549,"ĠYou":550,"ĠBut":551,"king":552,"Ġtre":553,"ie":554,"ared":555,"Ġsays":556,"Ġmade":557,"gether":558,"oud":559,"Ġcar":560,"Ġco":561,"Ġsomething":562,"Ã¢":563,"âĤ":564,"âĤ¬":565,"Ġstarted":566,"if":567,"Ġot":568,"Ġtogether":569,"Ġfrom":570,"Ġla":571,"Ġpark":572,"Ġother":573,"Ġput":574,"ep":575,"Ġpr":576,"ack":577,"ook":578,"ited":579,"Ġsad":580,"ble":581,"ell":582,"Ġhug":583,"Ġagain":584,"ried":585,"ĠL":586,"Ġnew":587,"Ġexc":588,"Ġwho":589,"Ġmu":590,"ach":591,"Ġgood":592,"est":593,"Ġfl":594,"Ġdec":595,"ara":596,"Ġhome":597,"Ġthen":598,"Ġliked":599,"qu":600,"Ġch":601,"Ġfound":602,"nn":603,"pped":604,"Ġwal":605,"Ġwhen":606,"hat":607,"Ġplaying":608,"Ġsw":609,"ought":610,"Ġget":611,"uck":612,"Ġthings":613,"ous":614,"ĠE":615,"as":616,"ge":617,"ĠMom":618,"Ġbl":619,"ĠD":620,"ally":621,"ided":622,"Ġdog":623,"Ġgot":624,"Ġcame":625,"Ġexcited":626,"Ġdecided":627,"They":628,"Ġyour":629,"pl":630,"ist":631,"ro":632,"ouse":633,"us":634,"Ġevery":635,"Ġta":636,"Ġscared":637,"nna":638,"Ġone":639,"ust":640,"ant":641,"Ġthan":642,"Ġdown":643,"ax":644,"Ġgra":645,"ers":646,"Ġfind":647,"ue":648,"Ġwill":649,"Ġcare":650,"ave":651,"Ġab":652,"Ġpa":653,"Ġbec":654,"arn":655,"Ġmy":656,"Ġball":657,"Ġdad":658,"Ġlook":659,"Ġfeel":660,"Ġtook":661,"Ġabout":662,"ĠSam":663,"ched":664,"udd":665,"Ġlot":666,"Ġv":667,"nder":668,"ged":669,"Ġke":670,"Ġgr":671,"ny":672,"our":673,"fe":674,"ways":675,"Ġdidn":676,"Ġpo":677,"ess":678,"bb":679,"ise":680,"Ġoutside":681,"Ġlaug":682,"Ġalways":683,"Ġlearn":684,"Ġtoys":685,"Ġknow":686,"Ġmommy":687,"ite":688,"Ġkne":689,"Ġmore":690,"Ġthought":691,"ĠF":692,"Ġtree":693,"Ġint":694,"Ġho":695,"Ġpre":696,"ened":697,"eci":698,"Ġsl":699,"Ġma":700,"orry":701,"Ġcat":702,"Ġany":703,"ull":704,"ive":705,"Ġtake":706,"Ġold":707,"Tom":708,"ia":709,"Ġknew":710,"Ġspeci":711,"Ġspecial":712,"But":713,"ĠMax":714,"Ġrun":715,"ink":716,"Ġsorry":717,"Ġpe":718,"ish":719,"Ġshow":720,"fter":721,"Ġmo":722,"Ġhow":723,"ĠSara":724,"udden":725,"Ġeat":726,"Ġmuch":727,"Ġtr":728,"Ġhand":729,"ate":730,"ma":731,"Ġor":732,"Ġhouse":733,"Ġtried":734,"Ġinto":735,"uddenly":736,"Ġinside":737,"Ġclo":738,"Ġop":739,"Ġwater":740,"Ġqu":741,"Ġproud":742,"Ġgave":743,"Ġtw":744,"ace":745,"ven":746,"ank":747,"Ġsun":748,"Ġtold":749,"Ġsk":750,"ĠEvery":751,"ty":752,"ĠAnna":753,"Ġen":754,"Ġeach":755,"Ġthis":756,"Ġheard":757,"Ġpick":758,"Ġplayed":759,"Ġnever":760,"ĠWe":761,"Ġcouldn":762,"ump":763,"Ġwat":764,"ort":765,"other":766,"Ġhugged":767,"Ġroom":768,"oth":769,"use":770,"Ġstr":771,"ion":772,"Ġover":773,"Ġpret":774,"Mom":775,"Ġmany":776,"Ġjust":777,"Ġsn":778,"Ġnice":779,"Ġbox":780,"Ġif":781,"here":782,"Ġexpl":783,"by":784,"Ġcom":785,"gry":786,"etter":787,"ause":788,"Ġsmall":789,"iz":790,"Ġtry":791,"dy":792,"ile":793,"urt":794,"ving":795,"Ġgre":796,"ine":797,"Ġoff":798,"Ġlong":799,"Ġneed":800,"Ġbear":801,"uc":802,"Ġbecause":803,"kes":804,"'m":805,"Ġunt":806,"Ġsha":807,"Ġlearned":808,"Ġbea":809,"em":810,"Ġjo":811,"Ġuntil":812,"ĠMia":813,"Ġfast":814,"He":815,"imal":816,"Ġflow":817,"Ġanimal":818,"ady":819,"Ġfo":820,"urn":821,"Ġdre":822,"ĠAnd":823,"sel":824,"Ġlaughed":825,"ars":826,"Ġend":827,"rent":828,"Ġus":829,"pt":830,"ves":831,"ild":832,"Ġlove":833,"Ġim":834,"ough":835,"ber":836,"Ġbest":837,"Ġbeaut":838,"ft":839,"ĠJack":840,"Ġbetter":841,"ĠC":842,"Ġbu":843,"Ġdon":844,"urp":845,"Ġra":846,"Ġkind":847,"Ġcall":848,"Ġcle":849,"iny":850,"Ġthanked":851,"Ġfi":852,"Yes":853,"Th":854,"Ġgard":855,"Ġgarden":856,"ĠSo":857,"Ġby":858,"Ġbra":859,"iful":860,"Ġbeautiful":861,"Ġte":862,"wn":863,"ĠHer":864,"Ġloud":865,"Ġlist":866,"Ġcareful":867,"Ġsky":868,"be":869,"Ġad":870,"Ġjump":871,"ies":872,"ct":873,"ĠJo":874,"Ġhurt":875,"Ġwo":876,"vent":877,"Ġeven":878,"Ġche":879,"self":880,"Ġfam":881,"Ġstill":882,"It":883,"Ġfle":884,"ĠFrom":885,"Ġway":886,"Ġcome":887,"Ġlots":888,"Ġbad":889,"Ġstay":890,"Ġgl":891,"Ġlet":892,"Ġboth":893,"ect":894,"Ġhard":895,"hes":896,"ĠThen":897,"Ġbook":898,"Ġunder":899,"Åĵ":900,"Ġanimals":901,"Ġclos":902,"Ġangry":903,"Ġcu":904,"Ġcol":905,"ished":906,"ase":907,"ning":908,"Ġrem":909,"ĠHis":910,"ip":911,"ock":912,"Tim":913,"ool":914,"kay":915,"Ġshould":916,"Ġdoll":917,"Ġsafe":918,"Ġred":919,"Ġbrave":920,"Ġwalked":921,"No":922,"Ġimp":923,"Ġits":924,"and":925,"Ġlived":926,"fore":927,"igh":928,"ap":929,"xt":930,"ople":931,"ree":932,"Ġfamily":933,"ĠP":934,"Ġshiny":935,"Ġfin":936,"When":937,"Ġpic":938,"Ġfore":939,"ĠÃ¢":940,"ucy":941,"urpr":942,"led":943,"Ġcry":944,"Ġdoor":945,"Ġstor":946,"Ġpeople":947,"Ġflew":948,"Ġsurpr":949,"Ġfly":950,"Ġtwo":951,"Ġhas":952,"ĠWhen":953,"Ġslide":954,"oon":955,"Ġturn":956,"ummy":957,"dded":958,"Ġnoise":959,"Ġkept":960,"Ġcalled":961,"Let":962,"Ġpretty":963,"ised":964,"Ġbefore":965,"Ġdan":966,"ger":967,"Ġwind":968,"Ġreal":969,"Ġshare":970,"Ben":971,"Ġsoon":972,"ane":973,"so":974,"Ġcre":975,"Ġnow":976,"Ġalso":977,"ob":978,"Ġfr":979,"Ġcon":980,"Ġrock":981,"Ġide":982,"Ġwr":983,"Ġgoing":984,"hn":985,"ture":986,"Ġey":987,"Ġopened":988,"ary":989,"illy":990,"Ġclean":991,"les":992,"Ġdra":993,"imb":994,"Ġexplore":995,"Ġkeep":996,"Ġsmile":997,"ĠG":998,"thing":999,"Ġnext":1000,"Ġground":1001,"aybe":1002,"Ġsto":1003,"Ġclimb":1004,"Ġidea":1005,"uch":1006,"Ġcolor":1007,"Ġpicked":1008,"iss":1009,"ious":1010,"Ġnodded":1011,"ac":1012,"Ġun":1013,"ĠDad":1014,"That":1015,"Ġwhile":1016,"Ġadvent":1017,"Ġthink":1018,"ĠN":1019,"oy":1020,"Ġdif":1021,"Ġbed":1022,"Ġpicture":1023,"âĤ¬â":1024,"Ġbeing":1025,"eet":1026,"Ġfish":1027,"th":1028,"Ġfar":1029,"ĠLucy":1030,"ied":1031,"Ġtruck":1032,"Ġflowers":1033,"Ġgive":1034,"Thank":1035,"Ġlisten":1036,"Ġwar":1037,"What":1038,"ak":1039,"Ġtow":1040,"Ġmean":1041,"Ġeyes":1042,"ff":1043,"Ġwalking":1044,"Ġfeeling":1045,"Ġthr":1046,"per":1047,"joy":1048,"Ġwalk":1049,"Ġown":1050,"Ġapp":1051,"Ġfood":1052,"Ġshout":1053,"irst":1054,"ember":1055,"Ħ¢":1056,"âĤ¬âĦ¢":1057,"Ġdel":1058,"ĠSp":1059,"iced":1060,"Ġbro":1061,"Ġwatch":1062,"Ġwait":1063,"Ġhands":1064,"Ġdoes":1065,"ted":1066,"Ġimport":1067,"Ġadventure":1068,"Ġstopped":1069,"Ġsqu":1070,"Ġlooking":1071,"She":1072,"Ġbre":1073,"Ġever":1074,"Ġforest":1075,"Ġimportant":1076,"Ġafter":1077,"Ġdiffe":1078,"Ġgreat":1079,"Ġremember":1080,"ught":1081,"bbed":1082,"co":1083,"Ġnear":1084,"maz":1085,"Ġenjoy":1086,"lease":1087,"Ġamaz":1088,"Ġblue":1089,"Ġhead":1090,"Ġright":1091,"llow":1092,"Ġwonder":1093,"Anna":1094,"Ġokay":1095,"Ġask":1096,"Ġboat":1097,"Ġstore":1098,"Ġquick":1099,"We":1100,"ĠSuddenly":1101,"ized":1102,"ath":1103,"Ġhop":1104,"Ġbright":1105,"Ġtra":1106,"Ġshowed":1107,"Ġwatched":1108,"Ġface":1109,"Ġwork":1110,"Sara":1111,"ila":1112,"Ġeveryone":1113,"ting":1114,"Ġde":1115,"Ġsound":1116,"Ġdifferent":1117,"day":1118,"ange":1119,"Ġstick":1120,"Ġvo":1121,"bbit":1122,"Ġnoticed":1123,"Ġfollow":1124,"ached":1125,"Ġnight":1126,"ĠMommy":1127,"Suddenly":1128,"ĠSue":1129,"Ġour":1130,"Ġtell":1131,"Ġdress":1132,"Ġstrong":1133,"Ġwhere":1134,"Ġrabbit":1135,"Look":1136,"So":1137,"Ġrain":1138,"Ġdis":1139,"Ġac":1140,"age":1141,"Ġrepl":1142,"Ġtal":1143,"isy":1144,"ng":1145,"Ġcook":1146,"Ġbecame":1147,"more":1148,"Ġpull":1149,"Ġquickly":1150,"Ġsure":1151,"Ġuse":1152,"gan":1153,"Ġbeen":1154,"Ġanymore":1155,"Ġblock":1156,"ĠSpot":1157,"Ġplace":1158,"bye":1159,"Ġcloser":1160,"Ġopen":1161,"leep":1162,"Ġgrabbed":1163,"Ġyell":1164,"Ġcuri":1165,"Ġbel":1166,"Ġye":1167,"Ġcake":1168,"Ġkid":1169,"Ġvoice":1170,"Ġonly":1171,"Ġfirst":1172,"Ġchild":1173,"Ġhere":1174,"Ġz":1175,"Ġsees":1176,"ount":1177,"lly":1178,"Ġmor":1179,"Ġpain":1180,"Ġreplied":1181,"Ġam":1182,"ster":1183,"ndma":1184,"ĠBob":1185,"Ġmon":1186,"imes":1187,"Ġreached":1188,"Ġwarm":1189,"Ġcurious":1190,"Ġgrass":1191,"Ġlea":1192,"Ġsweet":1193,"Ġmag":1194,"ĠR":1195,"Ġfav":1196,"Ġgoodbye":1197,"Ġforg":1198,"Ġhigh":1199,"Ġmum":1200,"ĠSarah":1201,"able":1202,"ired":1203,"ĠTh":1204,"Ġcars":1205,"Ġbit":1206,"ries":1207,"Ġsand":1208,"Ġthree":1209,"ered":1210,"Ġcont":1211,"aisy":1212,"Ġfell":1213,"ĠDo":1214,"Ġbutter":1215,"Can":1216,"itc":1217,"Ġdr":1218,"Ġrest":1219,"Ġflo":1220,"Ġready":1221,"Ġbirds":1222,"Ġshouted":1223,"Her":1224,"orn":1225,"Ġbeh":1226,"Ġcra":1227,"Ġless":1228,"Ġhelped":1229,"Ġhappened":1230,"Ġfire":1231,"Ġstop":1232,"ĠEveryone":1233,"Ġkids":1234,"Ġsing":1235,"Ġmaking":1236,"Jo":1237,"Ġjumped":1238,"Ġbus":1239,"Ġhaving":1240,"unny":1241,"Ġglad":1242,"bo":1243,"Ġduck":1244,"ĠLet":1245,"Ġlady":1246,"Wow":1247,"ign":1248,"Ġyummy":1249,"Ġsoft":1250,"After":1251,"ins":1252,"Ġate":1253,"Ġfunny":1254,"where":1255,"ag":1256,"Ġhat":1257,"ĠThat":1258,"Ġkitc":1259,"Ġparent":1260,"Ġkitchen":1261,"Ġper":1262,"Ġrealized":1263,"Ġtop":1264,"Ġtouch":1265,"Ġmouse":1266,"ather":1267,"Ġgame":1268,"ĠAs":1269,"Ġcut":1270,"Ġanother":1271,"Ġhair":1272,"Ġprin":1273,"Ġstory":1274,"Ġfix":1275,"Ġbrother":1276,"Ġcatch":1277,"Ġcried":1278,"'re":1279,"Ġhold":1280,"Ġpu":1281,"Ġdone":1282,"Mommy":1283,"Ġthing":1284,"Ġgi":1285,"ken":1286,"Ġsmell":1287,"Ġused":1288,"Ġfavor":1289,"Ġcoming":1290,"Ġdraw":1291,"Ġfavorite":1292,"Ġwhy":1293,"Ġunderst":1294,"Ġworry":1295,"Ġtast":1296,"ppy":1297,"Ġthank":1298,"Ġswim":1299,"ater":1300,"Ġsho":1301,"rel":1302,"zy":1303,"Ġbegan":1304,"ully":1305,"Ġlesson":1306,"Ġmess":1307,"Ġthrough":1308,"Ġwished":1309,"Ġlight":1310,"Ġseen":1311,"Ġcr":1312,"Ġstre":1313,"Ġmagic":1314,"iver":1315,"ĠJane":1316,"Ġworld":1317,"ĠCan":1318,"Ġparents":1319,"Ġprom":1320,"Ġread":1321,"Ġpretend":1322,"Ġwaved":1323,"sh":1324,"Ġtired":1325,"Ġhimself":1326,"Ġblocks":1327,"Ġbehind":1328,"Ġhear":1329,"Ġpart":1330,"Ġpaper":1331,"Ġflower":1332,"Don":1333,"Ġfro":1334,"Ġpond":1335,"uit":1336,"Ġlaugh":1337,"Ġpus":1338,"Ġname":1339,"Ġdelic":1340,"Ġru":1341,"Ġlooks":1342,"Ġdoing":1343,"Ġbutterf":1344,"Ġfloor":1345,"oney":1346,"fully":1347,"ient":1348,"Ġwindow":1349,"air":1350,"Ġremembered":1351,"olly":1352,"ren":1353,"Ġwrong":1354,"Ġtrees":1355,"As":1356,"Ġdream":1357,"Sam":1358,"Ġbag":1359,"Ġdro":1360,"ards":1361,"Ġdri":1362,"Ġfill":1363,"Ġcool":1364,"ation":1365,"Timmy":1366,"Ġswing":1367,"Ġspot":1368,"Ġcla":1369,"mer":1370,"Ġsleep":1371,"eddy":1372,"ds":1373,"Ġ-":1374,"Ġlikes":1375,"Ġreally":1376,"Ġice":1377,"\".":1378,"lf":1379,"Ġanything":1380,"Ġheld":1381,"Ġste":1382,"Ġsat":1383,"ĠDaisy":1384,"Ġperf":1385,"Ġhopped":1386,"Ġmove":1387,"ĠIn":1388,"Ġdin":1389,"ssed":1390,"ĠJohn":1391,"hy":1392,"Ġfull":1393,"Ġbunny":1394,"Ġsurprised":1395,"ĠJoe":1396,"Ġdark":1397,"Ġyears":1398,"uff":1399,"Ġbow":1400,"Ġbooks":1401,"Ġbug":1402,"Ġsurprise":1403,"ĠSally":1404,"ĠčĊ":1405,"ĠAfter":1406,"Ġsnow":1407,"Ġfair":1408,"Ġcold":1409,"Ġfinished":1410,"Ġgreen":1411,"Ġslow":1412,"Ġyellow":1413,"ike":1414,"Ġtall":1415,"reed":1416,"ons":1417,"Ġleft":1418,"Ġrunning":1419,"Ġfollowed":1420,"Ġwear":1421,"Ġlost":1422,"Ġfrog":1423,"Ġwood":1424,"Ġhid":1425,"Ġtable":1426,"Ġhole":1427,"ence":1428,"ash":1429,"ued":1430,"Ġel":1431,"Ġhappily":1432,"Ġneeded":1433,"Ġset":1434,"Ġhill":1435,"Ġenjoyed":1436,"Ġbutterfly":1437,"Ġcolors":1438,"John":1439,"Ġrel":1440,"ĠMaybe":1441,"Ġelse":1442,"Ġarri":1443,"asure":1444,"Ġair":1445,"Ġhot":1446,"Ġballoon":1447,"Ġcreat":1448,"Ġdelicious":1449,"ens":1450,"Ġcast":1451,"Ġworked":1452,"Ġherself":1453,"Ġhun":1454,"Hell":1455,"Hello":1456,"Ġsquir":1457,"Ġbaby":1458,"ield":1459,"ined":1460,"ĠThere":1461,"Ġwants":1462,"ĠTommy":1463,"Ġcarefully":1464,"Then":1465,"Ġmat":1466,"Ġdir":1467,"Ġarm":1468,"Ġbuy":1469,"Ġplease":1470,"Ġsquirrel":1471,"ĠK":1472,"Ġgone":1473,"ely":1474,"Ġsong":1475,"ance":1476,"inally":1477,"Ġcand":1478,"cess":1479,"Ġscre":1480,"Ġscary":1481,"Ġarrived":1482,"Ġyes":1483,"ĠLila":1484,"Ġbroken":1485,"Ġagreed":1486,"sp":1487,"Ġclose":1488,"Ġunderstand":1489,"Ġable":1490,"Ġgent":1491,"Ġbuild":1492,"Ġchildren":1493,"Ġleaves":1494,"Ġmight":1495,"Ġcontin":1496,"OK":1497,"Ġtight":1498,"ey":1499,"ĠNow":1500,"rot":1501,"Ġju":1502,"ross":1503,"Ġtrying":1504,"Ġwonderful":1505,"Ġforgot":1506,"Ġtri":1507,"Ġturned":1508,"av":1509,"Ġfall":1510,"Ġstayed":1511,"os":1512,"Ġspl":1513,"Ġpoin":1514,"Ġmar":1515,"Ġfew":1516,"Ġpink":1517,"Ġwhite":1518,"Ġcomp":1519,"oup":1520,"aught":1521,"Ġsmiles":1522,"oom":1523,"Ġroll":1524,"Ġenough":1525,"Ġpictures":1526,"row":1527,"man":1528,"Ġcookies":1529,"Ġfight":1530,"Ġfriendly":1531,"Ġlion":1532,"Ġclimbed":1533,"Ġsometimes":1534,"'ll":1535,"eep":1536,"Ġhungry":1537,"Ġmet":1538,"Ġpi":1539,"Ġfilled":1540,"Ġlake":1541,"Ġcontinued":1542,"ner":1543,"Jack":1544,"Ġwall":1545,"Ġgrandma":1546,"Ġstrange":1547,"Ġbreak":1548,"Ġpen":1549,"This":1550,"Ġcount":1551,"ucky":1552,"gon":1553,"lc":1554,"Ġrace":1555,"ĠWhat":1556,"Ġgetting":1557,"ced":1558,"Ġwet":1559,"Ġsomeone":1560,"Ġcastle":1561,"cle":1562,"ich":1563,"Ġmiss":1564,"Ġmorning":1565,"Ġvis":1566,"Ġamazing":1567,"Ġwon":1568,"Ġbrought":1569,"Ġmakes":1570,"ĠThis":1571,"Ġlistened":1572,"Ġmother":1573,"Ġbeach":1574,"Ġasks":1575,"From":1576,"âĢ":1577,"ĠJen":1578,"Ġmust":1579,"room":1580,"Ġthinks":1581,"Ġpulled":1582,"Ġtreat":1583,"Ġfinally":1584,"ee":1585,"ling":1586,"Ġhor":1587,"der":1588,"Ġruns":1589,"ctor":1590,"At":1591,"Ġtail":1592,"Ġpol":1593,"Ġspark":1594,"Ġothers":1595,"Ġeverything":1596,"Ġmonster":1597,"oring":1598,"ĠGra":1599,"Ġmoment":1600,"Ġamazed":1601,"ear":1602,"Ġsit":1603,"Ġsilly":1604,"Ġperfect":1605,"Ġwasn":1606,"Ġworried":1607,"Ġthre":1608,"Ġpat":1609,"Ġdinner":1610,"ast":1611,"pe":1612,"Ġdolls":1613,"Ġtalk":1614,"His":1615,"Ġwoods":1616,"ph":1617,"Ġshar":1618,"ĠBenny":1619,"Ġbutt":1620,"orm":1621,"ated":1622,"ire":1623,"ower":1624,"ĠBilly":1625,"Ġgrow":1626,"Ġfield":1627,"less":1628,"Ġplan":1629,"icy":1630,"red":1631,"Ġclot":1632,"avy":1633,"iet":1634,"Ġsear":1635,"Ġbran":1636,"Ġquiet":1637,"ever":1638,"Ġhide":1639,"Ġride":1640,"amp":1641,"Ġjoy":1642,"Ġdanger":1643,"Ġele":1644,"Ġtowards":1645,"Ġwaited":1646,"Ġclothes":1647,"Ġwelc":1648,"Ġsnack":1649,"Ġpet":1650,"Ġow":1651,"cket":1652,"Ġblank":1653,"Ġcream":1654,"cked":1655,"amed":1656,"ĠEm":1657,"Ġdaddy":1658,"pes":1659,"ott":1660,"ope":1661,"Ġflying":1662,"ames":1663,"Ġalone":1664,"Ġland":1665,"ugg":1666,"gs":1667,"Ġliving":1668,"Ġneigh":1669,"bble":1670,"me":1671,"Ġsail":1672,"Ġkiss":1673,"Ġmus":1674,"Ġblanket":1675,"ming":1676,"Ġgrate":1677,"Ġcandy":1678,"ĠTo":1679,"ises":1680,"Ġfruit":1681,"ama":1682,"Ġleave":1683,"Ġsign":1684,"eces":1685,"zz":1686,"Ġpieces":1687,"app":1688,"Ġpast":1689,"Ġfaster":1690,"Ġvisit":1691,"Ġneighb":1692,"Oh":1693,"igg":1694,"Okay":1695,"Ġcloud":1696,"Ġplant":1697,"Ġside":1698,"Ġstar":1699,"unch":1700,"Ġgrateful":1701,"cre":1702,"sw":1703,"Ġshared":1704,"ained":1705,"Ġreach":1706,"Ġansw":1707,"Ġwords":1708,"Ġtreasure":1709,"Ġcrying":1710,"Ġsame":1711,"ased":1712,"Ġdeep":1713,"Max":1714,"Ġfur":1715,"ĠJim":1716,"Ġpaint":1717,"Maybe":1718,"are":1719,"Ġpuppy":1720,"Ġgu":1721,"Ġwin":1722,"Ġmoney":1723,"ister":1724,"ipped":1725,"Ġdoctor":1726,"Ġpro":1727,"Ġsmart":1728,"ĠAmy":1729,"Ġcup":1730,"thy":1731,"Ġparty":1732,"Ġem":1733,"Ġbelie":1734,"key":1735,"Ġblack":1736,"Ġmost":1737,"ol":1738,"Ġmout":1739,"ang":1740,"Ġjoin":1741,"Ġmouth":1742,"Ġmin":1743,"Ġbrown":1744,"Ġcho":1745,"Ġheavy":1746,"Ġpromised":1747,"Sure":1748,"Ġsu":1749,"Ġbar":1750,"used":1751,"Ġteddy":1752,"Ġbath":1753,"ze":1754,"Ġowner":1755,"Ġhit":1756,"Ġeverywhere":1757,"Ġslowly":1758,"Ġdance":1759,"uffy":1760,"ix":1761,"ord":1762,"Ġnap":1763,"Ġbigger":1764,"Ġcoll":1765,"Ġsuch":1766,"Ġfence":1767,"Ġpie":1768,"Ġteac":1769,"Ġclosed":1770,"ĠDaddy":1771,"Ġmusic":1772,"ually":1773,"ĠMr":1774,"Ġfairy":1775,"Ġdangerous":1776,"Ġeating":1777,"Ġhoped":1778,"Ġcolorful":1779,"Ġbas":1780,"Ġatt":1781,"ĠAll":1782,"Ġbroke":1783,"fort":1784,"set":1785,"Ġtower":1786,"Ġmoral":1787,"Ġriver":1788,"Ġthrew":1789,"med":1790,"Ġhig":1791,"chool":1792,"Ġmagical":1793,"Ġbike":1794,"Ġhelping":1795,"Ġcarrot":1796,"Ġprincess":1797,"Ġwelcome":1798,"Ġteacher":1799,"Ġtoday":1800,"pping":1801,"Ġfox":1802,"eared":1803,"ket":1804,"Ġdragon":1805,"Ġbasket":1806,"phant":1807,"Ġclapped":1808,"Ġpot":1809,"Ġyard":1810,"Ġelephant":1811,"Ġbott":1812,"Ġtwins":1813,"ity":1814,"Ġpurp":1815,"Ġfeels":1816,"Ġjob":1817,"Ġacross":1818,"Ġschool":1819,"Ġstars":1820,"Ġhigher":1821,"br":1822,"Ġbite":1823,"Hi":1824,"ier":1825,"ches":1826,"Ġbee":1827,"Ġdisapp":1828,"iting":1829,"Ġheart":1830,"Ġgif":1831,"eter":1832,"Ġspr":1833,"Ġapple":1834,"Ġshoes":1835,"ho":1836,"Ġtown":1837,"Ġwithout":1838,"Ġsmo":1839,"Ġwouldn":1840,"de":1841,"Ġstuck":1842,"ountain":1843,"Ġdrove":1844,"Ġacc":1845,"Ġdirty":1846,"Ġhorse":1847,"Ġpurple":1848,"ward":1849,"ident":1850,"Why":1851,"Ġbuck":1852,"ush":1853,"Ġph":1854,"Ġlonger":1855,"Ġpushed":1856,"Ġce":1857,"Ġpack":1858,"Ġwise":1859,"Ġheal":1860,"Lila":1861,"Ġwhist":1862,"Ġfarmer":1863,"âĢĻ":1864,"Ġsoup":1865,"Ġsister":1866,"Ġhugs":1867,"og":1868,"Ġlate":1869,"Ġbelieve":1870,"ĠMolly":1871,"Ġsea":1872,"Ġstories":1873,"ible":1874,"vel":1875,"ead":1876,"Ġstu":1877,"Ġcaught":1878,"Ġforget":1879,"Ġstepped":1880,"Ġdist":1881,"ass":1882,"Ġshell":1883,"Ġwell":1884,"Ġhappen":1885,"Ġnose":1886,"col":1887,"Ġmonkey":1888,"ract":1889,"Ġcheered":1890,"Ġswings":1891,"Ġdrink":1892,"bs":1893,"ces":1894,"Ġwings":1895,"Ġupset":1896,"Ġnothing":1897,"Ġshook":1898,"Ġkey":1899,"Ġgentle":1900,"Ġsang":1901,"orrow":1902,"Ġnoises":1903,"Ġbranch":1904,"uched":1905,"Ġaf":1906,"Ġsuddenly":1907,"Ġtouched":1908,"stead":1909,"Ġthrow":1910,"Ġjuice":1911,"Ġcour":1912,"isa":1913,"ĠJill":1914,"Ġpocket":1915,"ining":1916,"Ġplac":1917,"Ġstand":1918,"Ġyoung":1919,"Ġwondered":1920,"Ġstreet":1921,"Ġbowl":1922,"Ġfing":1923,"ventually":1924,"Ġcoat":1925,"ment":1926,"Ġdry":1927,"Ġalong":1928,"Ġcute":1929,"Ġtrou":1930,"Ġaccident":1931,"Ġgames":1932,"irt":1933,"raid":1934,"Ġchair":1935,"Ġowl":1936,"Ġafraid":1937,"Ġcourse":1938,"Ġwish":1939,"ored":1940,"Ġexplained":1941,"Ġforever":1942,"Ġbusy":1943,"cy":1944,"Ġturns":1945,"Ġneighbor":1946,"Finally":1947,"Ġsick":1948,"Ġjar":1949,"Ġtakes":1950,"andy":1951,"Ġbelong":1952,"fused":1953,"Ġpers":1954,"Ġmoved":1955,"ĠGrandma":1956,"Ġcou":1957,"aur":1958,"ieved":1959,"ions":1960,"Ġdropped":1961,"Ġbutton":1962,"fish":1963,"Ġ3":1964,"itting":1965,"Ġtaking":1966,"ĠO":1967,"oun":1968,"Ġtrain":1969,"Ġcray":1970,"Ġes":1971,"Ġcow":1972,"Ġbat":1973,"Ġinv":1974,"Ġshop":1975,"Ġbring":1976,"Ġpiece":1977,"Ġfree":1978,"Ġcorn":1979,"bby":1980,"Ġswimming":1981,"yard":1982,"Ġve":1983,"Ġlunch":1984,"Ġbackyard":1985,"Ġbread":1986,"itch":1987,"Ġlon":1988,"ĠInside":1989,"Ġbucket":1990,"And":1991,"Ġorange":1992,"Ġrocks":1993,"Ġsinging":1994,"Ġben":1995,"Ġpig":1996,"umb":1997,"Ġpeace":1998,"Ġtiny":1999,"Ġmix":2000,"Ġshapes":2001,"ocked":2002,"Ġnaught":2003,"Ġholding":2004,"Ġnaughty":2005,"Ġeg":2006,"Ġswam":2007,"Ġlonely":2008,"Do":2009,"Ġmist":2010,"Mia":2011,"Ġexploring":2012,"llo":2013,"Ġanyone":2014,"ĠThank":2015,"Ġdes":2016,"Ġresp":2017,"Ġband":2018,"board":2019,"Ġpromise":2020,"Ġrelieved":2021,"itten":2022,"Ġwoke":2023,"Ġhope":2024,"Ġcollect":2025,"Ġgift":2026,"Ġpop":2027,"Ġjour":2028,"Ġspid":2029,"Ġjourn":2030,"adow":2031,"eb":2032,"Ġmad":2033,"Ġpath":2034,"Ġgather":2035,"Ġcover":2036,"Ġadventures":2037,"Ġdays":2038,"Ġshining":2039,"ĠFl":2040,"Ġwatching":2041,"Ġgives":2042,"Ġwra":2043,"Ġkick":2044,"Ġcomes":2045,"Hey":2046,"Ġclever":2047,"ale":2048,"Ġsnake":2049,"Ġsmelled":2050,"Ġble":2051,"Ġfit":2052,"Ġear":2053,"Ġround":2054,"ped":2055,"Ġsitting":2056,"Ġputs":2057,"to":2058,"Ġfan":2059,"Ġcir":2060,"ung":2061,"Ġcoin":2062,"Ġpres":2063,"Ġcolour":2064,"ose":2065,"shine":2066,"Ġlucky":2067,"Ġhello":2068,"Ġcraw":2069,"Ġdriver":2070,"Ġpointed":2071,"Ġmil":2072,"Ġmine":2073,"Ġje":2074,"cret":2075,"sy":2076,"weet":2077,"Ġsecret":2078,"Ġcomfort":2079,"ĠGo":2080,"blem":2081,"Ġproblem":2082,"Ġonto":2083,"Ġking":2084,"Ġkite":2085,"ail":2086,"Ġant":2087,"ĠMary":2088,"Ġsounds":2089,"Ġboun":2090,"ĠLisa":2091,"Ġmail":2092,"Tommy":2093,"Ġyear":2094,"ek":2095,"cks":2096,"Ġcave":2097,"Ġcozy":2098,"ĠSoon":2099,"cer":2100,"Ġlater":2101,"pper":2102,"Ġret":2103,"Ġsunshine":2104,"Ġsharp":2105,"gged":2106,"Ġcarry":2107,"thday":2108,"Ġnest":2109,"Ġloves":2110,"Ġgoes":2111,"Ġexciting":2112,"ĠSammy":2113,"Ġlaughing":2114,"ĠFinally":2115,"ize":2116,"Ġap":2117,"Ġpar":2118,"Ġsupp":2119,"Ġphone":2120,"ĠSomet":2121,"alm":2122,"Ġmyster":2123,"Ġfarm":2124,"Ġtasty":2125,"Ġarms":2126,"Ġpresent":2127,"unt":2128,"Ġpan":2129,"Ġpudd":2130,"idge":2131,"Ġinstead":2132,"Ġlift":2133,"Ġshirt":2134,"Ġspin":2135,"Ġquest":2136,"Ġcreature":2137,"Ġanswer":2138,"Ġreturn":2139,"cing":2140,"Ġgigg":2141,"Ġnearby":2142,"Ġsplas":2143,"ĠJimmy":2144,"Ġtries":2145,"Ġact":2146,"Ġneck":2147,"Ġcookie":2148,"Ġducks":2149,"ere":2150,"sc":2151,"Ġhoney":2152,"ors":2153,"eth":2154,"Ġsnowman":2155,"Ġaccidentally":2156,"Ġban":2157,"Ġmed":2158,"Ġsack":2159,"Ġspoon":2160,"Ġseemed":2161,"Ġbench":2162,"Ġprot":2163,"Ġsunny":2164,"izz":2165,"ĠCome":2166,"Ġwhe":2167,"Ġimag":2168,"Ġtalked":2169,"Ġpatient":2170,"bow":2171,"Ġtom":2172,"ĠTV":2173,"Ġbirthday":2174,"Ġslid":2175,"Ġzoom":2176,"Ġthough":2177,"ese":2178,"Ġgrand":2179,"Ġtrouble":2180,"ness":2181,"umber":2182,"Ġapples":2183,"Ġcard":2184,"Ġlife":2185,"Ġseat":2186,"Ġexp":2187,"Ġprotect":2188,"Ġsuc":2189,"Ġletter":2190,"Ġpower":2191,"ĠNeep":2192,"Ġgiant":2193,"Ġminut":2194,"Ġwhistle":2195,"Of":2196,"Ġent":2197,"ular":2198,"Ġbubble":2199,"Ġmatter":2200,"Ġmark":2201,"Ġstra":2202,"urse":2203,"Ġspo":2204,"Ġmoon":2205,"ub":2206,"els":2207,"ult":2208,"Ġsmiling":2209,"Ġadm":2210,"aughter":2211,"erest":2212,"als":2213,"Ġcheese":2214,"Ġrainbow":2215,"Bob":2216,"Every":2217,"hnn":2218,"ove":2219,"Ġbought":2220,"Ġeas":2221,"Ġmilk":2222,"hnny":2223,"Good":2224,"Ġwom":2225,"Ġmountain":2226,"Ġsaf":2227,"Ġlive":2228,"Ġspent":2229,"Ġmeet":2230,"Ġwrite":2231,"Ġwoman":2232,"Just":2233,"Ġcart":2234,"ĠTweet":2235,"Ġrope":2236,"Ġtool":2237,"Ġroad":2238,"Ġinterest":2239,"Ġtasted":2240,"Ġspider":2241,"Come":2242,"Ġpract":2243,"ching":2244,"Ġshy":2245,"ĠEmma":2246,"oose":2247,"Ġasleep":2248,"Ġfeather":2249,"Ġlovely":2250,"Ġspotted":2251,"Ġrespect":2252,"Ġjourney":2253,"Later":2254,"ĠZ":2255,"box":2256,"Ġrolled":2257,"Ġbark":2258,"Ġcann":2259,"Mum":2260,"let":2261,"Ġhuge":2262,"Ġmud":2263,"ÅĵI":2264,"Ġstorm":2265,"Ġappeared":2266,"Ġdirt":2267,"Ġbanan":2268,"Ġshr":2269,"Ġscar":2270,"Ġplaces":2271,"Lucy":2272,"Ġser":2273,"Ġoven":2274,"ont":2275,"Ġcreative":2276,"Ġfurry":2277,"Please":2278,"Ġcheer":2279,"Ġdanced":2280,"In":2281,"Ġign":2282,"Ġhon":2283,"ones":2284,"Ġpaw":2285,"Ġstring":2286,"Ġzoo":2287,"Ġgently":2288,"Ġcouch":2289,"St":2290,"pa":2291,"Ġscreamed":2292,"Molly":2293,"Ġmind":2294,"Ġrad":2295,"Ġfaces":2296,"Ġclouds":2297,"Ġbarked":2298,"Ġcannot":2299,"ĠWith":2300,"Ġrob":2301,"Ġval":2302,"Ġfront":2303,"Jim":2304,"ten":2305,"Ġinc":2306,"Ġlast":2307,"Ġtells":2308,"Ġperson":2309,"Ġlay":2310,"Ġlad":2311,"Ġdaughter":2312,"Ġsave":2313,"Ġhelpful":2314,"Ġwhole":2315,"een":2316,"la":2317,"Ġpool":2318,"lebr":2319,"Ġworm":2320,"Ġpuzz":2321,"Ġbuilding":2322,"bar":2323,"old":2324,"Ġpile":2325,"Ġshore":2326,"Ġtrip":2327,"Ġhealthy":2328,"Ġcorner":2329,"Ġinteresting":2330,"Ġwild":2331,"itty":2332,"ittens":2333,"Ġwhich":2334,"ĠMama":2335,"Ġpicn":2336,"Ġdelight":2337,"Ġdisco":2338,"Ġpretended":2339,"Ġdrive":2340,"Ġcelebr":2341,"ĠFluffy":2342,"Ġcri":2343,"arge":2344,"elly":2345,"Ġwhenever":2346,"Ġfighting":2347,"Ġpicnic":2348,"Soon":2349,"round":2350,"ress":2351,"Ġplane":2352,"Ġstone":2353,"Ġsheep":2354,"Ġbugs":2355,"Ġsplash":2356,"Ġtun":2357,"Ġwave":2358,"ert":2359,"Ġteeth":2360,"Ġsandw":2361,"Ġsearched":2362,"Ġcrayons":2363,"Ġladder":2364,"ses":2365,"Ġthin":2366,"Ġchased":2367,"ĠSometimes":2368,"Ġhum":2369,"Ġline":2370,"Ġpri":2371,"Ġspe":2372,"Ġchick":2373,"Ġhiding":2374,"Ġsmooth":2375,"Ġhears":2376,"Ġmach":2377,"Ġmaybe":2378,"Ġkitten":2379,"ĠEll":2380,"Ġfold":2381,"ĠHow":2382,"There":2383,"Ġfeet":2384,"Ġdecor":2385,"Ġpush":2386,"Ġsharing":2387,"colate":2388,"Ġblew":2389,"Ġcoo":2390,"Ġob":2391,"Ġring":2392,"Ġfinish":2393,"Ġfixed":2394,"Ġrude":2395,"Ġembar":2396,"Ġcarrots":2397,"ighed":2398,"Ġgoat":2399,"Ġconfused":2400,"Ġembarra":2401,"Ġfil":2402,"Ġpin":2403,"Ġpill":2404,"Ġforgive":2405,"Ġpeaceful":2406,"Ġlarge":2407,"Ġfoot":2408,"Ġwolf":2409,"Ġrobot":2410,"Ġteach":2411,"ipe":2412,"Ġscream":2413,"Ġfinger":2414,"Ġwide":2415,"Ġcalm":2416,"Ġpour":2417,"Ġsal":2418,"unk":2419,"Ġorgan":2420,"ĠEverywhere":2421,"Ġbush":2422,"Ġtreats":2423,"Dad":2424,"Ġbone":2425,"ĠTheir":2426,"Ġash":2427,"ĠCh":2428,"Ġremind":2429,"Ġchocolate":2430,"den":2431,"Ġtest":2432,"owed":2433,"ball":2434,"hile":2435,"Ġdi":2436,"Ġgen":2437,"Ġeventually":2438,"Ġgrab":2439,"dge":2440,"Ġhar":2441,"Ġgate":2442,"Ġjelly":2443,"Ġwaiting":2444,"Ġprince":2445,"My":2446,"mo":2447,"wor":2448,"Ġcher":2449,"Ġgun":2450,"irr":2451,"Ġtaste":2452,"Ġ'":2453,"Ġple":2454,"Ġstood":2455,"epend":2456,"Ġvill":2457,"ĠEmily":2458,"ĠJust":2459,"ĠJohnny":2460,"Ġtalking":2461,"Ġmissed":2462,"Ġmysterious":2463,"work":2464,"Ġwore":2465,"read":2466,"Ġpizz":2467,"ĠMum":2468,"Ġrec":2469,"Ġmeant":2470,"Ġfear":2471,"ife":2472,"Ġwearing":2473,"Ġhidden":2474,"Ġsongs":2475,"Ġpuddle":2476,"Ġmachine":2477,"To":2478,"Ġsort":2479,"Ġnumber":2480,"ird":2481,"Ġsol":2482,"airs":2483,"Ġfruits":2484,"Ġemp":2485,"Ġtomorrow":2486,"gly":2487,"Ġsur":2488,"era":2489,"Ġugly":2490,"Ġbrush":2491,"Ġempty":2492,"up":2493,"Ġsold":2494,"Ġforward":2495,"Ġcloth":2496,"Ġnods":2497,"Ġmistake":2498,"Ġcomfortable":2499,"lower":2500,"Ġtid":2501,"ital":2502,"ĠJake":2503,"ours":2504,"Ġhosp":2505,"ĠPlease":2506,"Ġpolice":2507,"Ġbottle":2508,"Ġspray":2509,"Ġhospital":2510,"ager":2511,"inted":2512,"Ġspread":2513,"ĠDon":2514,"Ġtrust":2515,"Ġclear":2516,"Ġembarrassed":2517,"Ġav":2518,"erry":2519,"Ġmummy":2520,"Ġcage":2521,"ĠWhy":2522,"ĠLe":2523,"Ġpicks":2524,"Ġgrew":2525,"ĠOn":2526,"Ġcries":2527,"Ġoce":2528,"Ġtape":2529,"Ġdeer":2530,"Ġstret":2531,"Ġeggs":2532,"Ġscarf":2533,"Ġocean":2534,"gy":2535,"Ġsel":2536,"Ġshelf":2537,"Ġplate":2538,"Ġleaf":2539,"'d":2540,"Now":2541,"rated":2542,"Ġsour":2543,"ĠTeddy":2544,"Ġclown":2545,"Ġlanded":2546,"Ġplants":2547,"Ġwagged":2548,"Ġmot":2549,"ote":2550,"Ġpray":2551,"Sp":2552,"ud":2553,"Ġcro":2554,"ĠSome":2555,"Ġeager":2556,"Ġgathered":2557,"Ġstraw":2558,"ointed":2559,"Ġwaves":2560,"ĠSt":2561,"Ġlicked":2562,"Ġpoor":2563,"Ġunderstood":2564,"Ġwis":2565,"iger":2566,"Ġexam":2567,"Ġlem":2568,"Ġchew":2569,"Ġwalks":2570,"Ġthankful":2571,"Ġdiscover":2572,"af":2573,"Ġwander":2574,"Ġwash":2575,"Ġcrab":2576,"Ġsighed":2577,"Ġthese":2578,"ĠBr":2579,"Ġdrew":2580,"Ġtea":2581,"ensive":2582,"Ġdisappointed":2583,"Ġquestions":2584,"Ġexpensive":2585,"Ġtidy":2586,"uce":2587,"Ġwhale":2588,"Ġcarried":2589,"Ġdrop":2590,"Ġmessy":2591,"Ġdinos":2592,"Ġsuccess":2593,"Ġminutes":2594,"Ġeasy":2595,"Ġdinosaur":2596,"cil":2597,"obby":2598,"Ġtick":2599,"Ġwire":2600,"Ġbald":2601,"Ġballs":2602,"Ġgroup":2603,"Ġmov":2604,"Ġsnacks":2605,"Ġesc":2606,"Ġpillow":2607,"Ġbell":2608,"Ġship":2609,"Ġbal":2610,"Ġword":2611,"Ġyours":2612,"Ġfrust":2613,"ache":2614,"Sarah":2615,"Ġpacked":2616,"Ġsplashed":2617,"Ġselfish":2618,"Ġstrawber":2619,"vous":2620,"Ġdeter":2621,"Ġpir":2622,"Ġmeadow":2623,"Ġknowing":2624,"Ġjumping":2625,"Ġballoons":2626,"most":2627,"Ġdeterm":2628,"Be":2629,"light":2630,"Ġnet":2631,"Ġham":2632,"ots":2633,"Ġknocked":2634,"Ġleg":2635,"Ġalmost":2636,"Stop":2637,"Ġpuzzle":2638,"Ġescap":2639,"Mama":2640,"Ġthick":2641,"Ġbirdie":2642,"Ġtaught":2643,"Ġtrue":2644,"Ġclass":2645,"Ġstanding":2646,"Ġhonest":2647,"Ġashamed":2648,"Ġpizza":2649,"Ġfrustrated":2650,"pack":2651,"Ġboring":2652,"Ġner":2653,"Ġclap":2654,"Ġfluffy":2655,"Ġdogs":2656,"Ġpencil":2657,"Jane":2658,"Sorry":2659,"akes":2660,"Ġhorn":2661,"ating":2662,"keep":2663,"itter":2664,"Ġwhis":2665,"Ġpassed":2666,"Ġshows":2667,"Ġmod":2668,"umpy":2669,"Ġmeans":2670,"Ġdistance":2671,"Ġcross":2672,"Ġsaved":2673,"Ġasking":2674,"ask":2675,"Ġblow":2676,"Ġknee":2677,"Ġcrown":2678,"Ġnervous":2679,"keeper":2680,"lice":2681,"ned":2682,"Ġhours":2683,"Ġgara":2684,"Ġrid":2685,"Ġstep":2686,"Ġones":2687,"Ġreg":2688,"Ġspend":2689,"getable":2690,"Ġpass":2691,"Ġcloset":2692,"Ġkissed":2693,"Ġvegetable":2694,"Ġgarage":2695,"ony":2696,"oof":2697,"Ġweak":2698,"Ġlock":2699,"Ġyourself":2700,"Ġvan":2701,"Ġtwirl":2702,"Ġyelled":2703,"ĠTogether":2704,"Ġbubbles":2705,"iness":2706,"Ġlit":2707,"Ġpay":2708,"ĠMittens":2709,"Ġmeasure":2710,"iff":2711,"Ġteam":2712,"Ġsmelly":2713,"Ġgener":2714,"Ġlose":2715,"Ġlegs":2716,"Ġscr":2717,"Ġpolite":2718,"Ġsparkly":2719,"Ġbuttons":2720,"hin":2721,"Ġfig":2722,"arl":2723,"ator":2724,"Ġonce":2725,"arth":2726,"Ġgets":2727,"olog":2728,"Ġspoil":2729,"Ġvillage":2730,"Are":2731,"dle":2732,"ual":2733,"Ġdest":2734,"Ġweird":2735,"Ġtaken":2736,"Ġoffered":2737,"Ġbedroom":2738,"body":2739,"Ġsleepy":2740,"Ġtightly":2741,"Ġreturned":2742,"ex":2743,"sist":2744,"Ġstuff":2745,"Ġwrote":2746,"Ġdetermined":2747,"gu":2748,"ying":2749,"Ġtent":2750,"Ġstir":2751,"ĠBe":2752,"elp":2753,"alk":2754,"Ġgold":2755,"illi":2756,"Ġfeed":2757,"Ġgray":2758,"Ġrocket":2759,"Ġstream":2760,"Ġguess":2761,"Ġbathroom":2762,"Ġbottom":2763,"Ġapolog":2764,"Ġparrot":2765,"Ġmedic":2766,"Ġbanana":2767,"Sally":2768,"apped":2769,"oop":2770,"cept":2771,"Their":2772,"Ġjung":2773,"ured":2774,"Ġseek":2775,"Ġexcite":2776,"Ġjoke":2777,"Ġcontent":2778,"ĠJenny":2779,"Ġmedicine":2780,"Help":2781,"ple":2782,"pill":2783,"Ġtie":2784,"Ġgas":2785,"Ġhero":2786,"Ġreward":2787,"Ġseed":2788,"Ġflash":2789,"izzy":2790,"Ġglass":2791,"Ġjungle":2792,"kin":2793,"ready":2794,"Ġdig":2795,"Ġhel":2796,"Ġjack":2797,"Ġvase":2798,"Ġcalling":2799,"Ġsweetie":2800,"Ġcirc":2801,"Ġpleased":2802,"Ġtooth":2803,"Ġfis":2804,"erpill":2805,"Ġmirr":2806,"Ġstones":2807,"illed":2808,"Ġcost":2809,"Ġchange":2810,"ĠDucky":2811,"Ġmap":2812,"Ġcaterpill":2813,"Ġfamous":2814,"Ġmovie":2815,"hip":2816,"Ġsil":2817,"Ġlamp":2818,"Ġref":2819,"Ġalready":2820,"Ġbecome":2821,"Ġtears":2822,"Ġtrucks":2823,"Ġcovered":2824,"Ġjew":2825,"Ġexcitement":2826,"ience":2827,"ts":2828,"Ġhur":2829,"Ġmic":2830,"Ġnut":2831,"ĠAt":2832,"ulif":2833,"Ġworking":2834,"zed":2835,"Ġaw":2836,"Ġburn":2837,"ĠIf":2838,"ĠBl":2839,"rag":2840,"Ġhopping":2841,"ecially":2842,"Ġqueen":2843,"Ġjuicy":2844,"Jimmy":2845,"Ġharm":2846,"ĠLeo":2847,"Ġgenerous":2848,"bin":2849,"ina":2850,"Ġyog":2851,"Ġsoap":2852,"Ġshark":2853,"Ġhose":2854,"Ġmoving":2855,"Ġbreath":2856,"ĠKitty":2857,"Ġfeathers":2858,"Ġincred":2859,"aff":2860,"ets":2861,"ĠMar":2862,"Ġrestaur":2863,"Ġrelax":2864,"Ġmatch":2865,"Ġmirror":2866,"Ġrestaurant":2867,"If":2868,"iddle":2869,"ano":2870,"Ġnotice":2871,"Ġcaulif":2872,"ief":2873,"Ġdecide":2874,"ĠEven":2875,"Ġord":2876,"selves":2877,"Ġdoesn":2878,"Ġdrank":2879,"Where":2880,"pecially":2881,"Ġmiddle":2882,"ete":2883,"Ġoften":2884,"ĠMandy":2885,"Ġarrow":2886,"Ġcabin":2887,"Ġslipped":2888,"Ġrealised":2889,"Ġfrown":2890,"Ġdrawing":2891,"Ġshoot":2892,"Ġdreamed":2893,"Ġcomput":2894,"Ġespecially":2895,"Ġsandwich":2896,"Ġmotor":2897,"Ġlemon":2898,"ground":2899,"Ġtummy":2900,"Ġborrow":2901,"Ġwand":2902,"Ġsell":2903,"Ġspace":2904,"oph":2905,"Ġbridge":2906,"Ġroar":2907,"Ġjog":2908,"Ġmighty":2909,"uggest":2910,"Ġpowerful":2911,"Spot":2912,"Ġincredible":2913,"ĠOK":2914,"Ġwip":2915,"Ġnorm":2916,"Ġhang":2917,"Ġstat":2918,"Ġmoms":2919,"Ġhurts":2920,"Ġeye":2921,"Ġcolourful":2922,"ĠBrown":2923,"corn":2924,"ipper":2925,"Ġagainst":2926,"ĠEnd":2927,"Ġskipped":2928,"Ġboxes":2929,"Ġpainting":2930,"Ġmetal":2931,"Ġdisappeared":2932,"Ġfancy":2933,"Ġneckl":2934,"Ġwheel":2935,"illiant":2936,"Ġcauliflower":2937,"Sue":2938,"ĠNo":2939,"Ġtem":2940,"Ġsight":2941,"Ġsuggest":2942,"Ġfool":2943,"Ġcam":2944,"Ġpant":2945,"ato":2946,"Ġbeet":2947,"Ġlocked":2948,"Ġcleaned":2949,"Ġhats":2950,"Ġpopcorn":2951,"Ġcaterpillar":2952,"Who":2953,"ond":2954,"ination":2955,"Ġsciss":2956,"Ġbrilliant":2957,"Ġchoose":2958,"Ġrare":2959,"Ġlouder":2960,"Ġdancing":2961,"Ġsmoke":2962,"Ġhappening":2963,"Ġgiggled":2964,"Ġscissors":2965,"Well":2966,"Ġind":2967,"ates":2968,"ĠBa":2969,"Ġbody":2970,"Ġlead":2971,"Ġrose":2972,"ushed":2973,"Ġsquee":2974,"Ġsticks":2975,"Ġanswered":2976,"Ġwrapped":2977,"Ġtunn":2978,"Ġnormal":2979,"imed":2980,"uth":2981,"ado":2982,"Ġbake":2983,"Ġspicy":2984,"ume":2985,"Ġclay":2986,"Ġflag":2987,"iable":2988,"Ġbrothers":2989,"Ġcrawled":2990,"Ġspinning":2991,"Ġadd":2992,"Ġcity":2993,"Ġok":2994,"Ġoat":2995,"Ġplayful":2996,"Ġboss":2997,"Ġrod":2998,"Ġgiving":2999,"Ġreliable":3000,"Ġbranches":3001,"Ġwhisper":3002,"Ġcomputer":3003,"Ġfoolish":3004,"Ġsug":3005,"Ġwagon":3006,"Ġboard":3007,"Ġchase":3008,"usual":3009,"Ġunusual":3010,"Ġlights":3011,"Ġsearch":3012,"Ġtools":3013,"fic":3014,"land":3015,"Ġtank":3016,"Ġfour":3017,"Ġfine":3018,"Ġfather":3019,"omed":3020,"Ġclock":3021,"Ġshape":3022,"coa":3023,"ĠKim":3024,"Ġwalls":3025,"Ġprize":3026,"Ġobed":3027,"Ġbalance":3028,"Ġbeetle":3029,"Ġfrag":3030,"Ġnurse":3031,"Ġears":3032,"ĠAnn":3033,"Ġsaying":3034,"Ġcocoa":3035,"que":3036,"uddy":3037,"Ġpebble":3038,"Ġdiffic":3039,"Ġenjoying":3040,"Ġaccept":3041,"Ġruined":3042,"Ġcircle":3043,"Ġgrandpa":3044,"Ġfigure":3045,"Me":3046,"Mummy":3047,"cient":3048,"ges":3049,"ha":3050,"oppy":3051,"Ġlying":3052,"Ġdust":3053,"irp":3054,"ugh":3055,"Ġext":3056,"Ġscare":3057,"ĠLittle":3058,"emo":3059,"Ġfavour":3060,"Ġfalls":3061,"Ġpointing":3062,"Ġpengu":3063,"Ġdesign":3064,"Ġhammer":3065,"Ġflashlight":3066,"Ġjacket":3067,"Ġsugar":3068,"Ġdifficult":3069,"How":3070,"fast":3071,"yal":3072,"Ġbored":3073,"ero":3074,"Ġmelt":3075,"ately":3076,"ĠSus":3077,"Ġthirst":3078,"Ġthief":3079,"Ġshake":3080,"alous":3081,"Ġknight":3082,"ouses":3083,"Ġgrown":3084,"Ġstronger":3085,"Ġperform":3086,"Ġbreakfast":3087,"Ġkicked":3088,"head":3089,"Ġadded":3090,"Ġfountain":3091,"asing":3092,"Ġthoughtful":3093,"Ġpee":3094,"Ġraced":3095,"Ġfright":3096,"Ġlaughs":3097,"Ġcompet":3098,"Ġsailed":3099,"Ġshells":3100,"Ġcartoon":3101,"Ġvegetables":3102,"Ġobedient":3103,"Ġfragile":3104,"Billy":3105,"wards":3106,"Ġter":3107,"Ġcone":3108,"Ġcudd":3109,"ilt":3110,"lex":3111,"Ġisland":3112,"Ġjam":3113,"uring":3114,"Ġhelps":3115,"Ġnicely":3116,"Ġreading":3117,"Ġmarble":3118,"uggled":3119,"Ġpastry":3120,"Ġfingers":3121,"Ġwrap":3122,"Ġjealous":3123,"Ġcamera":3124,"Ġpants":3125,"Ġfavourite":3126,"aged":3127,"dom":3128,"kn":3129,"und":3130,"Ġsuit":3131,"Ġtough":3132,"Ġhouses":3133,"ressed":3134,"erly":3135,"Ġrat":3136,"stri":3137,"Ġhappiness":3138,"Ġloyal":3139,"Ġexper":3140,"Ġbloom":3141,"Ġgrace":3142,"Ġlearning":3143,"Ġjoined":3144,"Ġchest":3145,"Ġglow":3146,"Ġtowel":3147,"Ġdreams":3148,"Ġsteal":3149,"Ġnecklace":3150,"Gra":3151,"lies":3152,"ym":3153,"Ġdizzy":3154,"Ġsauce":3155,"anged":3156,"ention":3157,"Ġancient":3158,"illie":3159,"Ġflut":3160,"Ġexcitedly":3161,"Ġknows":3162,"Ġenv":3163,"Ġways":3164,"ĠPeter":3165,"Ġsquash":3166,"Ġinvited":3167,"laimed":3168,"Ġsolve":3169,"Ġsuccessful":3170,"Ġescape":3171,"Ġstatue":3172,"Ġtunnel":3173,"Ġthirsty":3174,"Ġcompetit":3175,"Ġtiger":3176,"Ġmel":3177,"Ġpump":3178,"Ġsaus":3179,"Ġexclaimed":3180,"Ġsword":3181,"Ġtruth":3182,"Ġtwig":3183,"Ġneeds":3184,"Here":3185,"Ġkindness":3186,"Ġfier":3187,"Ġimpressed":3188,"Ġunkn":3189,"Ġdrum":3190,"Ġharmless":3191,"Ġer":3192,"ĠBobby":3193,"rage":3194,"Ġnod":3195,"Ġlaw":3196,"ĠFin":3197,"Ġproudly":3198,"Ġcheap":3199,"Ġuncle":3200,"Ġtrap":3201,"Ġpasta":3202,"umbers":3203,"Ġunknown":3204,"Jill":3205,"ye":3206,"Ġbitter":3207,"Ġostri":3208,"Ġhalf":3209,"ĠBear":3210,"Ġlean":3211,"Ġmanaged":3212,"ella":3213,"Ġtele":3214,"Ġglue":3215,"Ġtelling":3216,"host":3217,"Ġbelonged":3218,"Ġcricket":3219,"Ġchicken":3220,"Ġextra":3221,"Ġfierce":3222,"Go":3223,"io":3224,"ti":3225,"Ġfake":3226,"Ġyet":3227,"Ġroof":3228,"Ġstage":3229,"Ġplayground":3230,"Ġshone":3231,"Ġshadow":3232,"Ġnoisy":3233,"Ġmeas":3234,"Ġcoins":3235,"Ġchar":3236,"Ġcube":3237,"Ġcryst":3238,"ĠToday":3239,"Ġegg":3240,"pid":3241,"ĠU":3242,"Ġed":3243,"ĠTr":3244,"aring":3245,"Ġghost":3246,"Ġclum":3247,"Ġfinding":3248,"Ġcareless":3249,"Ġgrumpy":3250,"Ġunl":3251,"cod":3252,"Ġholds":3253,"Ġstupid":3254,"Ġcrocod":3255,"Ġscrat":3256,"oc":3257,"Ġbarn":3258,"Ġbull":3259,"reem":3260,"Ġpil":3261,"ature":3262,"ldi":3263,"Ġrich":3264,"Ġweek":3265,"Ġanx":3266,"urous":3267,"Ġarg":3268,"?\".":3269,"Ġstove":3270,"Ġadventurous":3271,"Ġsounded":3272,"Ġstops":3273,"ages":3274,"Ġcounted":3275,"Ġcircles":3276,"Ġterri":3277,"Ġbump":3278,"enny":3279,"Ġshel":3280,"Ġorig":3281,"Ġtwist":3282,"Ġeng":3283,"Ġflex":3284,"ĠNemo":3285,"Ġcrack":3286,"Ġhairy":3287,"Ġbatter":3288,"Ġmailbox":3289,"Ġjellyfish":3290,"Ġfrightened":3291,"Ġanxious":3292,"Neep":3293,"awn":3294,"cou":3295,"ccol":3296,"uz":3297,"under":3298,"Ġtoast":3299,"ines":3300,"ari":3301,"ĠBuddy":3302,"ugged":3303,"Ġboys":3304,"Ġotter":3305,"Ġfridge":3306,"Ġboats":3307,"Ġpainted":3308,"ations":3309,"ĠKate":3310,"Ġlifted":3311,"Ġspoiled":3312,"Ġdestro":3313,"Ġcrocodile":3314,"ccoli":3315,"na":3316,"ray":3317,"Ġsle":3318,"Ġsink":3319,"Ġdough":3320,"erries":3321,"Ġgir":3322,"Ġnumbers":3323,"ament":3324,"Ġweal":3325,"Ġspell":3326,"Ġknife":3327,"Ġprep":3328,"Ġshowing":3329,"Ġsniff":3330,"Ġjolly":3331,"Ġkinds":3332,"Ġflea":3333,"aches":3334,"Ġchose":3335,"Ġvalu":3336,"Ġhuman":3337,"ĠBlue":3338,"Ġwiped":3339,"Ġsuggested":3340,"Ġenvious":3341,"Ġostrich":3342,"Ġclumsy":3343,"ext":3344,"ique":3345,"Ġwitch":3346,"Ġberries":3347,"Ġpal":3348,"Ġthunder":3349,"Ġstaff":3350,"Ġrefused":3351,"Ġusing":3352,"ĠPete":3353,"Ġuniver":3354,"Ġunique":3355,"Ġbroccoli":3356,"Ġfirework":3357,"Ġmissing":3358,"Ġsparkled":3359,"umbled":3360,"Ġbandage":3361,"Ġadmired":3362,"Ġpoured":3363,"Ġindepend":3364,"mb":3365,"nament":3366,"Ġicy":3367,"inal":3368,"Ġpipe":3369,"isk":3370,"imi":3371,"Ġthemselves":3372,"Ġjug":3373,"ict":3374,"Ġrode":3375,"ellig":3376,"ĠLook":3377,"Ġmuff":3378,"Ġtag":3379,"Ġintellig":3380,"Ġmoder":3381,"Ġorder":3382,"Ġornament":3383,"Ġbeak":3384,"Ġcheck":3385,"Ġharder":3386,"Ġtowers":3387,"cream":3388,"ebra":3389,"Ġbounce":3390,"Ġmarket":3391,"Ġstrawberry":3392,"Ġtemple":3393,"Ġmelon":3394,"Ġoriginal":3395,"Ġflexible":3396,"gest":3397,"rn":3398,"inary":3399,"Ġhunt":3400,"Ġfre":3401,"ision":3402,"Ġrever":3403,"Ġbiggest":3404,"Ġspun":3405,"Ġchanged":3406,"Ġswitch":3407,"Ġjumps":3408,"ĠPa":3409,"Ġopens":3410,"Ġpopular":3411,"Ġreminded":3412,"Ġcherries":3413,"Ġbossy":3414,"Ġpalace":3415,"Ġindependent":3416,"iv":3417,"Ġaunt":3418,"Ġpurse":3419,"atter":3420,"illa":3421,"Ġbuilt":3422,"Ġbrightly":3423,"Ġedge":3424,"Ġengine":3425,"Ġdestroy":3426,"Ġmodern":3427,"bw":3428,"Ġwake":3429,"ither":3430,"anger":3431,"Ġeld":3432,"Ġcobw":3433,"Ġlab":3434,"Ġskin":3435,"Ġshouts":3436,"Ġzebra":3437,"Ġrestless":3438,"Joe":3439,"Ġcompass":3440,"Ġradio":3441,"Ġcelebrate":3442,"Ġspeed":3443,"Ġfearful":3444,"Ġpirate":3445,"Ġpeeked":3446,"Ġpumpkin":3447,"Ġcharming":3448,"fa":3449,"ibb":3450,"Ġturt":3451,"Ġtimes":3452,"Ġahead":3453,"ory":3454,"Ġforth":3455,"iew":3456,"Ġlazy":3457,"Ġending":3458,"Ġsandbox":3459,"âĢ¦":3460,"Ġsupport":3461,"Ġslides":3462,"Ġserious":3463,"Ġcheerful":3464,"Ġrecord":3465,"Ġregular":3466,"Ġterrible":3467,"Ġvaluable":3468,"Amy":3469,"ject":3470,"Ġnail":3471,"orant":3472,"Ġshocked":3473,"Ġsmaller":3474,"ÅĵLet":3475,"ips":3476,"Ġleaving":3477,"ĠRex":3478,"Ġwindows":3479,"Ġsoldier":3480,"Ġhelm":3481,"Ġpenguin":3482,"Ġwealthy":3483,"Ġcompassion":3484,"pers":3485,"Ġson":3486,"Ġrough":3487,"ĠBunny":3488,"Ġshiver":3489,"Ġcact":3490,"Ġview":3491,"Ġcats":3492,"arsh":3493,"Ġloudly":3494,"ĠWhenever":3495,"ĠGive":3496,"Ġbushes":3497,"Ġdriving":3498,"Ġmarch":3499,"Ġmustache":3500,"Ġcrayon":3501,"Ġcrib":3502,"Ġorganized":3503,"aking":3504,"Ġfat":3505,"ery":3506,"Ġmay":3507,"Ġpony":3508,"Ġwashed":3509,"ĠSn":3510,"Ġsofa":3511,"ĠAlex":3512,"opus":3513,"Ġchalk":3514,"ctopus":3515,"Ġdreaming":3516,"Ġsleeping":3517,"Ġsearching":3518,"Ġspring":3519,"cycle":3520,"Ġsafely":3521,"ĠTweetie":3522,"Ġignorant":3523,"Ġdelighted":3524,"Ġcrystal":3525,"hood":3526,"oot":3527,"time":3528,"Ġsend":3529,"Ġcur":3530,"Ġoctopus":3531,"Ġgoose":3532,"Ġinse":3533,"Ġfort":3534,"Ġlibr":3535,"Ġnote":3536,"Ġdolp":3537,"Ġrep":3538,"Ġfriendship":3539,"Ġsomewhere":3540,"Ġchain":3541,"Ġgrabs":3542,"Ġpressed":3543,"Ġcleaning":3544,"Ġdead":3545,"Ġcupboard":3546,"ĠMrs":3547,"Ġplaced":3548,"Ġcreatures":3549,"Ġdiscovered":3550,"Ġfresh":3551,"Ġturtle":3552,"Ġcactus":3553,"Ġtorn":3554,"Ġfurt":3555,"arry":3556,"ĠSh":3557,"Ġitself":3558,"Ġstumbled":3559,"ĠMy":3560,"!\".":3561,"robe":3562,"Ġencou":3563,"Ġsne":3564,"Ġbeauty":3565,"Ġbadly":3566,"Ġfireman":3567,"Ġgiven":3568,"Ġdelicate":3569,"Ġbags":3570,"Ġtrick":3571,"Ġneighbour":3572,"Ġfilthy":3573,"Ġavoc":3574,"ĠSusie":3575,"Ġcompetitive":3576,"Ġelderly":3577,"Ġfurther":3578,"Daisy":3579,"Ġsent":3580,"Ġbri":3581,"Ġhoop":3582,"Ġhall":3583,"anny":3584,"oto":3585,"ckey":3586,"Ġlog":3587,"Ġmem":3588,"Ġstarts":3589,"Ġgrapes":3590,"Ġhockey":3591,"Ġenorm":3592,"Ġcreate":3593,"Ġrubb":3594,"Ġpersist":3595,"ĠEllie":3596,"Ġfilm":3597,"Ġsorts":3598,"Ġtwirled":3599,"Ġjewel":3600,"Ġgraceful":3601,"Ġenormous":3602,"Ow":3603,"While":3604,"ging":3605,"zard":3606,"Ġwing":3607,"Ġhay":3608,"Ġstairs":3609,"ĠBun":3610,"ĠMark":3611,"Ġscale":3612,"Ġmole":3613,"Ġpicking":3614,"Ġblueber":3615,"Ġsticker":3616,"Ġstickers":3617,"ĠRose":3618,"Ġshovel":3619,"Ġmarry":3620,"Ġhorses":3621,"astic":3622,"Ġpige":3623,"Ġvalue":3624,"Ġordinary":3625,"ĠTrue":3626,"Ġten":3627,"Ġtied":3628,"Ġmug":3629,"Ġpow":3630,"ilty":3631,"Ġguit":3632,"Ġearth":3633,"ĠJul":3634,"ĠdidnÃ¢":3635,"ĠFred":3636,"Ġtrunk":3637,"Ġhandle":3638,"Ġenvel":3639,"ems":3640,"Ġguilty":3641,"ordon":3642,"Ġcarrying":3643,"Ġpractice":3644,"ĠElla":3645,"Ġcobweb":3646,"Ġenvelope":3647,"ef":3648,"house":3649,"loo":3650,"ube":3651,"ubby":3652,"Ġtire":3653,"Ġharsh":3654,"Ġcamp":3655,"llip":3656,"ĠHere":3657,"Ġrushed":3658,"Ġlizard":3659,"Ġjeep":3660,"Ġmeal":3661,"ĠLee":3662,"Ġchasing":3663,"Ġhanded":3664,"Ġstranger":3665,"ĠPat":3666,"Ġdeliver":3667,"Ġswinging":3668,"Ġguard":3669,"ĠOr":3670,"Ġmixed":3671,"Ġintelligent":3672,"llipop":3673,"ipp":3674,"Ġtube":3675,"Ġsym":3676,"Ġgor":3677,"Ġyawn":3678,"ĠMimi":3679,"Ġloop":3680,"Ġgolf":3681,"ĠAlice":3682,"Ġnames":3683,"Ġscatter":3684,"Ġseem":3685,"Ġpale":3686,"bborn":3687,"Ġholes":3688,"Ġanyway":3689,"Ġtrump":3690,"izes":3691,"Ġunpack":3692,"Ġsquare":3693,"Ġuseful":3694,"Ġzero":3695,"Ġmagn":3696,"bol":3697,"Ġstubborn":3698,"Ġimagined":3699,"Ġdecorate":3700,"Ġsalad":3701,"Ġmotorcycle":3702,"Ġsymbol":3703,"Ġing":3704,"Ġmis":3705,"ĠMillie":3706,"tern":3707,"Ġlollipop":3708,"Ġscold":3709,"aser":3710,"Ġanywhere":3711,"Ġpear":3712,"Ġsnuggled":3713,"Ġoffice":3714,"Ġtrash":3715,"Ġdeaf":3716,"Ġpulls":3717,"Ġprint":3718,"Ġmessage":3719,"Ġpenny":3720,"Ġgrowing":3721,"Ġcourage":3722,"Ġpracticed":3723,"Ġcooking":3724,"Ġapologized":3725,"Ġyogurt":3726,"ĠBrownie":3727,"Ġeraser":3728,"Ġinsect":3729,"Ġpersistent":3730,"Ġpigeon":3731,"Em":3732,"az":3733,"par":3734,"Ġtoil":3735,"Ġhook":3736,"Ġdish":3737,"anut":3738,"orable":3739,"Ġthose":3740,"Ġur":3741,"Ġstri":3742,"Ġstared":3743,"stairs":3744,"Ġsepar":3745,"Ġchance":3746,"Ġquite":3747,"Ġener":3748,"Ġadorable":3749,"redient":3750,"Ġbarber":3751,"Ġstudy":3752,"ĠGod":3753,"Ġcooked":3754,"Ġgasped":3755,"Ġsilver":3756,"Ġcompassionate":3757,"Ġingredient":3758,"Re":3759,"shed":3760,"Ġcomet":3761,"Ġbean":3762,"Ġsoil":3763,"htub":3764,"opard":3765,"Ġflame":3766,"Ġabove":3767,"ĠEverything":3768,"ĠcouldnÃ¢":3769,"Ġtravel":3770,"Ġdrawer":3771,"Ġcreated":3772,"ola":3773,"Ġcollar":3774,"Ġcere":3775,"Ġbathtub":3776,"Ġpaws":3777,"Ġguitar":3778,"Ġtoilet":3779,"Ġsum":3780,"nda":3781,"Ġlow":3782,"Ġdull":3783,"Ġdepend":3784,"Ġhappier":3785,"Ġknock":3786,"Ġclub":3787,"ĠWh":3788,"Ġvine":3789,"Ġquit":3790,"ÅĵIt":3791,"Benny":3792,"Ġwarned":3793,"Ġbutterflies":3794,"Ġcows":3795,"Ġlively":3796,"Ġspeak":3797,"Ġorganize":3798,"Ġwishes":3799,"Ġfishing":3800,"Ġgorilla":3801,"gust":3802,"oe":3803,"year":3804,"Ġtheater":3805,"ince":3806,"Ġcop":3807,"irit":3808,"Ġribb":3809,"Ġbeep":3810,"Ġshort":3811,"Ġneat":3812,"Ġrece":3813,"Ġreef":3814,"ĠJerry":3815,"Ġleash":3816,"Ġnosy":3817,"Ġalert":3818,"ĠWhile":3819,"ĠYour":3820,"Ġsadly":3821,"Ġchubby":3822,"ason":3823,"Ġpost":3824,"Ġexplored":3825,"ĠCl":3826,"Ġtrains":3827,"Ġdisgust":3828,"Ġdrawings":3829,"Ġriding":3830,"Ġfrowned":3831,"Ġslept":3832,"iskers":3833,"Ġlibrary":3834,"aid":3835,"cut":3836,"eer":3837,"het":3838,"ndpa":3839,"Ġdug":3840,"Ġhedge":3841,"Ġmask":3842,"Ġshut":3843,"ĠMummy":3844,"Ġjet":3845,"icer":3846,"Ġswan":3847,"Ġskill":3848,"ĠAndy":3849,"ÅĵWhat":3850,"Ġtrack":3851,"Ġperm":3852,"Ġrolling":3853,"Ġpattern":3854,"Ġcrawl":3855,"Ġgiggle":3856,"Ġspoke":3857,"Ġradish":3858,"Ġwhispered":3859,"Ġpilot":3860,"Ġshelter":3861,"Give":3862,"aked":3863,"com":3864,"yle":3865,"ret":3866,"Ġmath":3867,"Ġnature":3868,"imp":3869,"Ġlie":3870,"Ġshine":3871,"Ġresist":3872,"Ġboots":3873,"Ġspirit":3874,"Ġhelpless":3875,"Ġcapt":3876,"Ġcarp":3877,"ĠLilly":3878,"Ġswe":3879,"Ġpeanut":3880,"Ġexplain":3881,"Ġgloom":3882,"Ġnowhere":3883,"aghet":3884,"Ġpiano":3885,"Ġquestion":3886,"Ġletters":3887,"Ġadmire":3888,"Ġsummer":3889,"aghetti":3890,"Yay":3891,"ikes":3892,"ne":3893,"night":3894,"noon":3895,"port":3896,"vice":3897,"Ġled":3898,"Ġport":3899,"Ġitch":3900,"Ġstack":3901,"Ġdove":3902,"Ġspear":3903,"Ġleopard":3904,"Ġalive":3905,"Ġtax":3906,"Ġfinds":3907,"Ġpepper":3908,"Ġskull":3909,"uct":3910,"Ġbury":3911,"ÅĵYes":3912,"Ġimpress":3913,"Ġafternoon":3914,"Ġzip":3915,"Ġrubbed":3916,"Ġcounting":3917,"Ġdistant":3918,"Ġmonkeys":3919,"Ġpresents":3920,"Ġstretched":3921,"ĠMaria":3922,"ÅĵLetÃ¢":3923,"Ġdolphin":3924,"Ġtrumpet":3925,"Ġdependable":3926,"Ġcarpet":3927,"Ġtask":3928,"Ġsudden":3929,"Ġobs":3930,"Ġgum":3931,"lla":3932,"Ġbees":3933,"amond":3934,"ĠBill":3935,"chair":3936,"Ġreind":3937,"urb":3938,"ĠAre":3939,"Ġspilled":3940,"Ġspaghetti":3941,"Ġart":3942,"Ġmeat":3943,"Ġlas":3944,"Ġquar":3945,"Ġsnee":3946,"sely":3947,"Ġglove":3948,"apa":3949,"Ġhoping":3950,"Ġcountry":3951,"Ġpackage":3952,"Ġdisturb":3953,"Ġshopkeeper":3954,"Ġearly":3955,"Ġrespectful":3956,"ĠUn":3957,"Ġgloomy":3958,"Ġtaxi":3959,"Ġobser":3960,"Ġreindeer":3961,"bled":3962,"gn":3963,"Ġbicy":3964,"Ġmen":3965,"ecause":3966,"Ġscoot":3967,"Ġclosely":3968,"Ġstruc":3969,"Ġshaking":3970,"Ġbuzz":3971,"Ġforgave":3972,"Ġhaircut":3973,"Ġarmchair":3974,"Ġprov":3975,"Ġattic":3976,"Ġattract":3977,"Ġgifted":3978,"ebook":3979,"Ġcolours":3980,"Everyone":3981,"Ġbananas":3982,"Ġdiamond":3983,"Ġstirred":3984,"Ġcostume":3985,"Ġreverse":3986,"Ġhelmet":3987,"Ġcereal":3988,"Ġstructure":3989,"Ġsoar":3990,"Ġhappens":3991,"Ġnotebook":3992,"ices":3993,"iches":3994,"Your":3995,"ĠWhere":3996,"Ġcompl":3997,"Ġrail":3998,"Ġpainter":3999,"Ġsett":4000,"Ġmarched":4001,"Ġbreaks":4002,"Ġblankets":4003,"Ġpotato":4004,"Ġbarking":4005,"affe":4006,"Ġsteps":4007,"arlie":4008,"Ġseeds":4009,"Ġingredients":4010,"come":4011,"ws":4012,"Ġsizes":4013,"ito":4014,"Ġcurt":4015,"Ġlid":4016,"erable":4017,"Ġrhin":4018,"celet":4019,"ric":4020,"Ġlip":4021,"Ġlions":4022,"Ġrepe":4023,"Ġload":4024,"Ġcable":4025,"Ġroared":4026,"Ġfauc":4027,"quito":4028,"ucked":4029,"Ġbracelet":4030,"aces":4031,"Ġsque":4032,"Ġacorn":4033,"Ġthanks":4034,"Ġpushes":4035,"Ġscreen":4036,"Ġphoto":4037,"Ġdesk":4038,"Ġthinking":4039,"Ġchickens":4040,"Ġgiraffe":4041,"Ġmiserable":4042,"Ġenergy":4043,"ĠWhiskers":4044,"Ġimpressive":4045,"Ġcurtain":4046,"Ġrhino":4047,"Bye":4048,"Ha":4049,"ait":4050,"case":4051,"Ġlime":4052,"Ġluck":4053,"Ġmill":4054,"Ġpit":4055,"Ġeither":4056,"Ġstom":4057,"ceed":4058,"Ġplastic":4059,"aled":4060,"Ġresc":4061,"Ġang":4062,"Ġbackpack":4063,"rosc":4064,"Ġpapers":4065,"Ġsnap":4066,"Ġdoors":4067,"âĤ¬âĢ":4068,"Ġheads":4069,"Ġbrighter":4070,"ĠBobo":4071,"Ġpretending":4072,"osed":4073,"Ġbelongs":4074,"Ġimagination":4075,"Ġcardboard":4076,"Ġhumble":4077,"Ġlemonade":4078,"uzzy":4079,"Ġdisgusting":4080,"comfort":4081,"Ġattractive":4082,"Mary":4083,"aila":4084,"iest":4085,"squito":4086,"Ġbet":4087,"Ġdess":4088,"iron":4089,"Ġstation":4090,"Ġhadn":4091,"Ġlives":4092,"Ġshamp":4093,"Ġreco":4094,"Ġseco":4095,"bbie":4096,"Ġmosquito":4097,"Ġskip":4098,"Ġjokes":4099,"Ġchecked":4100,"Ġuncomfort":4101,"Ġthread":4102,"Ġtreasures":4103,"Ġmint":4104,"Ġminer":4105,"Ġtroubled":4106,"Ġminute":4107,"Ġsalt":4108,"Ġcherry":4109,"Ġmicrosc":4110,"Ġargue":4111,"ĠPaul":4112,"Ġbicycle":4113,"Ġscooter":4114,"ailable":4115,"Ġdessert":4116,"Ġshampoo":4117,"Ġsecond":4118,"Ġuncomfortable":4119,"Ġmicroscope":4120,"See":4121,"heart":4122,"Ġcared":4123,"arnt":4124,"ety":4125,"Ġrot":4126,"Ġrug":4127,"Ġweather":4128,"Ġfork":4129,"ĠBu":4130,"Ġbase":4131,"Ġboot":4132,"ĠJames":4133,"Ġlearnt":4134,"ĠWould":4135,"ssible":4136,"Ġflies":4137,"Ġswung":4138,"ĠDave":4139,"Ġpair":4140,"Ġfeelings":4141,"Ġolder":4142,"Ġchess":4143,"ected":4144,"Ġbelt":4145,"Ġcastles":4146,"Ġfalling":4147,"ĠGrace":4148,"ĠToby":4149,"Ġwinter":4150,"Ġsucceed":4151,"Ġincl":4152,"Ġsandwiches":4153,"Ġsniffed":4154,"Ġavocado":4155,"Ġfaucet":4156,"Ġrecogn":4157,"Alice":4158,"azz":4159,"tress":4160,"Ġfurn":4161,"iture":4162,"Ġpor":4163,"Ġink":4164,"Ġinsist":4165,"Ġyach":4166,"ĠBet":4167,"ĠBella":4168,"una":4169,"Ġcane":4170,"Ġknot":4171,"Ġnobody":4172,"Ġagree":4173,"Ġgrill":4174,"Ġadvice":4175,"Ġwriting":4176,"Ġhung":4177,"Ġmattress":4178,"Ġplanet":4179,"Ġsailing":4180,"Ġsupposed":4181,"Ġmedal":4182,"Ġbarks":4183,"Ġshrink":4184,"Ġmodest":4185,"Ġhurry":4186,"Ġsqueezed":4187,"Ġfurniture":4188,"Little":4189,"ci":4190,"hus":4191,"ues":4192,"uby":4193,"Ġwigg":4194,"Ġbur":4195,"Ġcree":4196,"Ġcush":4197,"omb":4198,"Ġoil":4199,"Ġonion":4200,"Ġshield":4201,"Ġbaking":4202,"Ġlawn":4203,"Ġcham":4204,"Ġblouse":4205,"Ġended":4206,"Ġraven":4207,"Ġbookcase":4208,"Ġimpro":4209,"Ġclapping":4210,"ĠJoey":4211,"Ġcandle":4212,"Ġenthus":4213,"Ġpinch":4214,"Ġavailable":4215,"ophone":4216,"Ġhanging":4217,"Ġoats":4218,"undry":4219,"Ġexperience":4220,"Ġyacht":4221,"Ġcreek":4222,"ccer":4223,"oco":4224,"reci":4225,"Ġwaving":4226,"Ġcards":4227,"Ġol":4228,"Ġsoccer":4229,"Ġjunk":4230,"ĠWill":4231,"Ġcoal":4232,"Ġlaundry":4233,"Ġpaid":4234,"Ġpage":4235,"Ġpress":4236,"Ġshakes":4237,"Ġappreci":4238,"Ġcrazy":4239,"Ġtripped":4240,"Ġtricks":4241,"Ġpoint":4242,"Ġvisited":4243,"Ġparade":4244,"Ġdiary":4245,"Ġdrops":4246,"ĠBaldi":4247,"Ġunlock":4248,"'.":4249,"ives":4250,"men":4251,"Ġaer":4252,"Ġcord":4253,"Ġlang":4254,"Ġdent":4255,"ooped":4256,"Ġstamp":4257,"Ġshade":4258,"opl":4259,"Ġbears":4260,"ĠPolly":4261,"Ġtrail":4262,"Ġmagaz":4263,"Ġsplit":4264,"Ġcomplet":4265,"Ġelev":4266,"Ġwelcomed":4267,"Ġattention":4268,"ĠZoom":4269,"Ġignored":4270,"Ġobject":4271,"Ġmodel":4272,"happy":4273,"reeman":4274,"Ġscolded":4275,"Ġaeropl":4276,"Ġlangu":4277,"Ġske":4278,"Ġwiz":4279,"edy":4280,"Ġgear":4281,"atient":4282,"ĠSee":4283,"llie":4284,"Ġyucky":4285,"Ġrake":4286,"ĠAl":4287,"Ġseeing":4288,"Ġflapped":4289,"Ġslipper":4290,"Ġeaten":4291,"Ġsung":4292,"Ġevening":4293,"Ġimpatient":4294,"Ġunhappy":4295,"Ġheaded":4296,"Ġsweetheart":4297,"Ġbehave":4298,"Ġtriang":4299,"Ġsparkling":4300,"Ġfields":4301,"Ġbarrel":4302,"Ġbounced":4303,"Ġgolden":4304,"Ġhunter":4305,"Ġelevator":4306,"Ġslippery":4307,"Eventually":4308,"rophone":4309,"Ġsize":4310,"inking":4311,"Ġmild":4312,"aroo":4313,"ison":4314,"elcome":4315,"chor":4316,"Ġisn":4317,"Ġkang":4318,"Ġanchor":4319,"raged":4320,"Ġseal":4321,"Ġallowed":4322,"Ġpole":4323,"Ġpoke":4324,"Ġneedle":4325,"Ġshouldn":4326,"ĠPapa":4327,"Ġlistening":4328,"Ġshoe":4329,"Ġlightning":4330,"Ġpushing":4331,"Ġjudge":4332,"Ġpolish":4333,"Ġperfectly":4334,"Ġchoice":4335,"Ġsuper":4336,"Ġpuddles":4337,"Ġzoomed":4338,"leton":4339,"Ġserve":4340,"Daddy":4341,"Together":4342,"Ġpirates":4343,"Ġmicrophone":4344,"Ġrelaxed":4345,"Ġflute":4346,"Ġrepair":4347,"Ġmagnet":4348,"Ġskills":4349,"Ġchamber":4350,"Ġskeleton":4351,"Ġkangaroo":4352,"Is":4353,"ab":4354,"Ġiron":4355,"Ġax":4356,"Ġbikes":4357,"ites":4358,"any":4359,"Ġinf":4360,"ĠEventually":4361,"play":4362,"Ġtap":4363,"ĠFreeman":4364,"Ġpeek":4365,"ÅĵThat":4366,"Ġshoulder":4367,"xture":4368,"reeze":4369,"ĠPip":4370,"Ġconf":4371,"Ġscrew":4372,"ĠGrandpa":4373,"Ġwhistled":4374,"Ġthrows":4375,"Ġkingdom":4376,"Ġwheels":4377,"ĠTweety":4378,"Ġfolder":4379,"Ġcabinet":4380,"Ġwizard":4381,"Did":4382,"Lisa":4383,"iately":4384,"lass":4385,"sity":4386,"vision":4387,"Ġbent":4388,"Ġhive":4389,"Ġhipp":4390,"ilo":4391,"Ġcaring":4392,"Ġmush":4393,"Ġflour":4394,"Ġpanda":4395,"Ġsurprises":4396,"Ġclimbing":4397,"Ġshouting":4398,"Ġdishes":4399,"Ġamb":4400,"ĠRo":4401,"Ġsoftly":4402,"mediately":4403,"Ġbasketball":4404,"Ġsprink":4405,"Ġshrugged":4406,"ĠChirp":4407,"Ġstrawberries":4408,"Ġsneak":4409,"Ġrubber":4410,"ĠJulia":4411,"Ġseparate":4412,"Ġquarrel":4413,"Ġporch":4414,"ombine":4415,"Ġaxe":4416,"Because":4417,"eff":4418,"Ġfive":4419,"erc":4420,"Ġgro":4421,"ĠMike":4422,"Ġreaches":4423,"ĠLola":4424,"place":4425,"ĠCombine":4426,"Ġtear":4427,"ÅĵYou":4428,"Ġdisag":4429,"Ġbelow":4430,"ĠRed":4431,"Ġcrane":4432,"Ġrules":4433,"ĠInstead":4434,"ceros":4435,"Ġentered":4436,"Today":4437,"achel":4438,"Ġaccepted":4439,"Ġlawy":4440,"Ġleaned":4441,"Ġtelevision":4442,"Ġrhinoceros":4443,"Ġsunglass":4444,"Ġsunglasses":4445,"Jen":4446,"die":4447,"ipping":4448,"mm":4449,"sed":4450,"Ġsir":4451,"Ġtoes":4452,"Ġpad":4453,"Ġpun":4454,"Ġpra":4455,"anic":4456,"Ġumb":4457,"chanic":4458,"Ġexerc":4459,"Ġleak":4460,"Ġmechanic":4461,"Ġquack":4462,"Ġstrugg":4463,"ement":4464,"ĠCoco":4465,"ction":4466,"Ġsticky":4467,"Ġdressed":4468,"Ġraining":4469,"Ġdisplay":4470,"Ġrestore":4471,"Ġpup":4472,"Ġsmells":4473,"Ġcooler":4474,"Ġpatch":4475,"Ġpetals":4476,"Ġthrowing":4477,"Ġsurf":4478,"ups":4479,"Ġblowing":4480,"Ġsausages":4481,"Ġpowder":4482,"Ġcaptain":4483,"Ġlaser":4484,"Ġcushion":4485,"Ġdentist":4486,"Ġaeroplane":4487,"Ġambul":4488,"Ġumbre":4489,"Ch":4490,"Mandy":4491,"ween":4492,"Ġsuff":4493,"Ġsix":4494,"Ġwine":4495,"Ġbin":4496,"Ġga":4497,"anna":4498,"Ġyield":4499,"Ġrul":4500,"Ġkay":4501,"hter":4502,"rod":4503,"Ġvet":4504,"Ġintrod":4505,"Ġpeach":4506,"Ġmoves":4507,"Ġtray":4508,"Ġrooms":4509,"Ġsnail":4510,"ĠPoppy":4511,"ĠRuby":4512,"Ġfireplace":4513,"Ġrub":4514,"rence":4515,"Ġsparkle":4516,"Ġvend":4517,"Ġcrawling":4518,"Ġants":4519,"Ġstraight":4520,"Ġsafety":4521,"Ġstuffed":4522,"Ġnuts":4523,"Ġmeasured":4524,"Ġmuffin":4525,"Ġrescue":4526,"Ġbetween":4527,"Ġmushroom":4528,"Ġlawyer":4529,"Ġambulance":4530,"Man":4531,"Wait":4532,"mend":4533,"nie":4534,"ron":4535,"Ġig":4536,"Ġbother":4537,"Ġmister":4538,"ommend":4539,"Ġgem":4540,"Ġsaving":4541,"ories":4542,"Ġrow":4543,"Ġstyle":4544,"Ġfactor":4545,"Ġstarting":4546,"Ġworse":4547,"Ġworth":4548,"Ġvest":4549,"Ġpoked":4550,"Ġlaughter":4551,"Ġtwink":4552,"Ġbrain":4553,"Ġhurting":4554,"ĠPe":4555,"ĠNut":4556,"ĠNext":4557,"ĠSpike":4558,"Ġdisc":4559,"Ġbookshe":4560,"Ġmatches":4561,"Ġcandles":4562,"Ġbuildings":4563,"anges":4564,"Ġpigs":4565,"Ġmistakes":4566,"Ġsplashing":4567,"Ġtomato":4568,"Ġenter":4569,"Ġrecommend":4570,"Ġvanished":4571,"ophie":4572,"ĠBaby":4573,"Ġsausage":4574,"Ġtornado":4575,"Ġsweater":4576,"Ġmineral":4577,"Ġumbrella":4578,"Ġruler":4579,"Ġigloo":4580,"Ġfactory":4581,"cast":4582,"cakes":4583,"gen":4584,"Ġtug":4585,"Ġdigg":4586,"ĠHelp":4587,"Ġinst":4588,"Ġplayer":4589,"Ġbak":4590,"Ġknelt":4591,"Ġprun":4592,"Ġmule":4593,"Ġpages":4594,"Ġcomb":4595,"Ġimmediately":4596,"ctly":4597,"Ġdrain":4598,"Ġdelay":4599,"Ġfollows":4600,"Ġspots":4601,"Ġpoints":4602,"Ġwallet":4603,"Ġattach":4604,"Ġmixer":4605,"Ġcollecting":4606,"Ġimagine":4607,"Ġcelebrated":4608,"Ġeagerly":4609,"Ġburned":4610,"Ġuniversity":4611,"Ġbrick":4612,"Ġmenu":4613,"Ġmagazine":4614,"Ġtriangle":4615,"Ġdigging":4616,"lier":4617,"Ġtur":4618,"Ġtub":4619,"Ġwipe":4620,"inked":4621,"render":4622,"Ġfought":4623,"ising":4624,"Ġnavy":4625,"stic":4626,"ĠMiss":4627,"Ġsew":4628,"Ġjazz":4629,"iform":4630,"Ġpoison":4631,"iastic":4632,"Ġburied":4633,"ledge":4634,"Ġuniform":4635,"Ġdear":4636,"Ġdresses":4637,"Ġsandcast":4638,"Ġcrash":4639,"Ġairport":4640,"Ġattached":4641,"Ġelephants":4642,"Ġneighborhood":4643,"Ġinvite":4644,"Ġcollected":4645,"Ġpanic":4646,"Ġshrimp":4647,"laud":4648,"Ġscreams":4649,"Ġwisdom":4650,"Ġregret":4651,"Ġmelted":4652,"Ġcuddled":4653,"Ġmeasuring":4654,"Ġbattery":4655,"iction":4656,"Ġencouraged":4657,"Ġmemories":4658,"ĠClara":4659,"Ġenthusiastic":4660,"Ġgrocer":4661,"Ġdiscu":4662,"Ġbookshelf":4663,"rs":4664,"te":4665,"Ġwags":4666,"iling":4667,"Ġhers":4668,"ĠIs":4669,"Ġupstairs":4670,"alley":4671,"ĠWho":4672,"âĤ¬.":4673,"ĠLuna":4674,"ĠMomo":4675,"Ġvalley":4676,"Ġknowledge":4677,"Ġshower":4678,"Ġraft":4679,"Ġcheek":4680,"Ġremove":4681,"Ġapplaud":4682,"Ġbreat":4683,"Ġclaws":4684,"lcano":4685,"Ġkisses":4686,"Ġmystery":4687,"Ġstretch":4688,"Ġcrossed":4689,"Ġspending":4690,"Ġyoga":4691,"Ġflutter":4692,"ĠUncle":4693,"Ġcomplain":4694,"Ġangel":4695,"Ġlanguage":4696,"Ġhippo":4697,"Ġkayak":4698,"ictionary":4699,"Ba":4700,"Will":4701,"ived":4702,"iers":4703,"rin":4704,"right":4705,"riger":4706,"Ġsince":4707,"Ġfile":4708,"Ġdictionary":4709,"Ġpist":4710,"Ġpalm":4711,"omes":4712,"Ġoas":4713,"ĠSandy":4714,"ĠIÃ¢":4715,"Ġweep":4716,"Ġshot":4717,"seum":4718,"Ġreve":4719,"Ġgoal":4720,"Ġknob":4721,"Ġmuseum":4722,"Ġblinked":4723,"Ġpoem":4724,"ĠFr":4725,"Ġraise":4726,"Ġframe":4727,"Ġclimbs":4728,"Ġamazement":4729,"Ġvolcano":4730,"Ġairpl":4731,"Ġblackboard":4732,"Ġbathrobe":4733,"Ġfootball":4734,"Ġsoldiers":4735,"Ġsprayed":4736,"Ġdinosaurs":4737,"Ġfisher":4738,"Ġrefriger":4739,"Ġyawned":4740,"Ġribbon":4741,"Ġturkey":4742,"Ġpistol":4743,"Ġoasis":4744,"Ġrefrigerator":4745,"Not":4746,"aw":4747,"was":4748,"Ġtucked":4749,"Ġsomed":4750,"Ġtore":4751,"Ġpur":4752,"Ġgain":4753,"ides":4754,"Ġsock":4755,"Ġscore":4756,"Ġputting":4757,"Ġchirp":4758,"Ġgrin":4759,"Ġoffer":4760,"ission":4761,"Thanks":4762,"Ġdifference":4763,"ngth":4764,"Ġzipper":4765,"Ġstrength":4766,"Ġsailor":4767,"Ġapart":4768,"ĠCharlie":4769,"Ġsurrender":4770,"Ġrefre":4771,"Ġjewels":4772,"Ġshooting":4773,"Ġcartoons":4774,"Grandma":4775,"ĠSnow":4776,"Ġdishwas":4777,"Ġpermission":4778,"Ġsomeday":4779,"Ġdishwasher":4780,"momet":4781,"rmomet":4782,"xy":4783,"Ġthermomet":4784,"Ġhut":4785,"Ġoak":4786,"Ġyarn":4787,"unately":4788,"Ġspaces":4789,"icing":4790,"Ġcap":4791,"ops":4792,"Ġpride":4793,"ĠEach":4794,"ĠEarth":4795,"bbled":4796,"Ġkneel":4797,"Ġoranges":4798,"Ġgreedy":4799,"Ġofficer":4800,"Ġcrept":4801,"Ġkeeping":4802,"ĠGordon":4803,"Ġappro":4804,"Ġhopes":4805,"Ġpulling":4806,"Ġcrunch":4807,"Ġhills":4808,"Ġhotel":4809,"Ġunderstanding":4810,"osie":4811,"Ġcounter":4812,"Ġplanes":4813,"Ġdisappear":4814,"Ġstud":4815,"Ġseats":4816,"Ġwandered":4817,"ĠAnnie":4818,"Ġprepare":4819,"âĤ¬âĢľ":4820,"Ġinfant":4821,"..":4822,"Next":4823,"Welcome":4824,"ggy":4825,"ney":4826,"ĠV":4827,"Ġbones":4828,"Ġbreeze":4829,"Ġdire":4830,"Ġgained":4831,"ĠitÃ¢":4832,"ĠHave":4833,"These":4834,"Ġkitty":4835,"Ġrequ":4836,"Ġgirls":4837,"ĠJeff":4838,"Ġhelper":4839,"Ġmanage":4840,"Ġpaused":4841,"Ġpopped":4842,"Ġopera":4843,"Ġfastest":4844,"ĠdonÃ¢":4845,"Ġcub":4846,"Ġappear":4847,"Ġrabbits":4848,"Ġfrogs":4849,"Ġforgotten":4850,"Ġfallen":4851,"Ġmarried":4852,"Ġbelieved":4853,"Ġhits":4854,"Ġceiling":4855,"Ġjournal":4856,"Ġbleed":4857,"Ġsafari":4858,"Ġprice":4859,"Ġsurround":4860,"Ġawe":4861,"arian":4862,"Ġuniverse":4863,"Ġcurled":4864,"Ġpraised":4865,"All":4866,"Ok":4867,"Yuck":4868,"fied":4869,"Ġlend":4870,"Ġdive":4871,"Ġdaisy":4872,"Ġdare":4873,"Ġpies":4874,"Ġwaste":4875,"Ġoy":4876,"Ġitems":4877,"Ġinch":4878,"Ġrush":4879,"Ġbeg":4880,"Ġbeat":4881,"Ġsheet":4882,"Ġsoared":4883,"Ġweigh":4884,"Ġlick":4885,"icop":4886,"Ġbrus":4887,"Ġblood":4888,"ĠDan":4889,"Ġgrape":4890,"Ġpossible":4891,"mand":4892,"Ġsunset":4893,"Ġdancer":4894,"ĠRachel":4895,"Ġfloat":4896,"Ġcrow":4897,"Ġsteam":4898,"Ġsits":4899,"Ġquietly":4900,"Ġsub":4901,"Ġspiders":4902,"Ġearlier":4903,"Ġbouncing":4904,"ĠSomething":4905,"Inside":4906,"Ġhelicop":4907,"Ġteleph":4908,"Emma":4909,"Ready":4910,"Ġpatterns":4911,"Ġcomplete":4912,"ĠNutty":4913,"Ġcrunchy":4914,"Ġhelicopter":4915,"bers":4916,"cage":4917,"eor":4918,"uzy":4919,"wk":4920,"Ġx":4921,"Ġsim":4922,"Ġwife":4923,"Ġbul":4924,"reen":4925,"Ġwaff":4926,"Ġhawk":4927,"Ġspade":4928,"Ġbirdcage":4929,"Ġlaid":4930,"uckily":4931,"ĠFo":4932,"Ġskirt":4933,"Ġtexture":4934,"ĠSpark":4935,"Ġtrave":4936,"Johnny":4937,"Ġperfume":4938,"osity":4939,"Ġmissile":4940,"apping":4941,"Ġcups":4942,"Ġcoats":4943,"Ġbathe":4944,"Ġinvest":4945,"Ġpancakes":4946,"Ġmountains":4947,"Ġmeeting":4948,"Ġtuna":4949,"Ġticket":4950,"Ġclassroom":4951,"Ġguessed":4952,"Ġsqueeze":4953,"Ġbumped":4954,"Ġmuffins":4955,"Ġblueberry":4956,"Ġreceived":4957,"Ġvendor":4958,"Ġthermometer":4959,"Ġspaceship":4960,"Mmm":4961,"With":4962,"bor":4963,"do":4964,"ian":4965,"nger":4966,"oey":4967,"walk":4968,"Ġtong":4969,"arm":4970,"enry":4971,"imney":4972,"amie":4973,"Ġstro":4974,"ĠBo":4975,"hero":4976,"Ġres":4977,"Ġcase":4978,"Ġprop":4979,"ĠLike":4980,"Ġnews":4981,"Ġchimney":4982,"asp":4983,"anta":4984,"Ġlotion":4985,"Ġtrop":4986,"Ġquiz":4987,"Ġstrang":4988,"Ġsnapped":4989,"Ġglowed":4990,"Ġbravely":4991,"ĠPam":4992,"ĠGood":4993,"Ġstorekeeper":4994,"Ġfollowing":4995,"Ġcrashed":4996,"Ġfiref":4997,"Ġsquirrels":4998,"Ġmarching":4999,"Ġgrowled":5000,"Ġpaints":5001,"Ġnapkin":5002,"Ġwheat":5003,"Ġpatiently":5004,"Ġignore":5005,"Ġharbor":5006,"Ġtrusted":5007,"Ġchewed":5008,"Ġburning":5009,"Ġblueberries":5010,"Ġurge":5011,"Ġbuzzing":5012,"Ġinclud":5013,"Ġsuperhero":5014,"Ġstruggling":5015,"annah":5016,"Ġairplane":5017,"Ġfisherman":5018,"Ġrequest":5019,"Ġoyster":5020,"Ġtelephone":5021,"eorge":5022,"Ġstrangers":5023,"Jenny":5024,"cious":5025,"low":5026,"sit":5027,"sing":5028,"Ġach":5029,"Ġhomes":5030,"ities":5031,"Ġlumber":5032,"Ġmama":5033,"ishes":5034,"Ġgust":5035,"ĠHarry":5036,"Ġrice":5037,"Ġsting":5038,"Ġstable":5039,"urch":5040,"Ġchurch":5041,"Ġdoggy":5042,"emember":5043,"Ġremain":5044,"Ġpupp":5045,"Ġsidewalk":5046,"Ġadmir":5047,"reement":5048,"ival":5049,"Ġdestroyed":5050,"Ġinsisted":5051,"Ġimprove":5052,"Ġsuffer":5053,"Ġbulb":5054,"!'":5055,"Bun":5056,"ah":5057,"actly":5058,"oved":5059,"uke":5060,"uly":5061,"Ġaut":5062,"Ġfed":5063,"Ġdried":5064,"Ġped":5065,"iday":5066,"atch":5067,"ĠSophie":5068,"Ġthumb":5069,"ley":5070,"Ġbeamed":5071,"Ġbegged":5072,"Ġshed":5073,"Ġonwards":5074,"Ġplays":5075,"Ġlicks":5076,"indy":5077,"Ġscooped":5078,"Ġmeow":5079,"Ġvac":5080,"Ġprecious":5081,"ishment":5082,"Ġeats":5083,"Ġtrade":5084,"Ġsunf":5085,"ĠJoy":5086,"ÅĵNo":5087,"Ġunite":5088,"Ġbeds":5089,"Ġwarning":5090,"Ġowners":5091,"Ġours":5092,"Ġzipped":5093,"Ġdrinking":5094,"Ġtaller":5095,"Ġdeeper":5096,"Ġdoctors":5097,"ĠOllie":5098,"Ġapron":5099,"Ġexamine":5100,"Ġdestination":5101,"Ġtwigs":5102,"Ġscratched":5103,"Ġscattered":5104,"Ġstomach":5105,"Ġappreciate":5106,"ĠChirpy":5107,"Ġapproached":5108,"Ġinvestig":5109,"Ġresult":5110,"Ġtrophy":5111,"'ve":5112,"Would":5113,"drobe":5114,"Ġ1":5115,"Ġsi":5116,"Ġwool":5117,"edd":5118,"Ġlugg":5119,"ishing":5120,"Ġincre":5121,"Ġeff":5122,"Ġrhy":5123,"Ġplates":5124,"Ġsore":5125,"Ġwhip":5126,"Ġspit":5127,"Ġalarm":5128,"Ġbrings":5129,"ĠLiz":5130,"Ġdecision":5131,"Ġvi":5132,"Ġoper":5133,"Ġwatches":5134,"Ġcomf":5135,"Ġgrey":5136,"embers":5137,"ĠCar":5138,"Ġbrand":5139,"Ġfamil":5140,"Ġremembers":5141,"Ġshoulders":5142,"ĠPandy":5143,"Ġwardrobe":5144,"Ġdemand":5145,"ngel":5146,"Ġsatis":5147,"Ġbowed":5148,"bbles":5149,"fortunately":5150,"Ġhearts":5151,"Ġchairs":5152,"Ġinvit":5153,"Ġsupply":5154,"Ġpuzzles":5155,"Ġdecorations":5156,"Ġpinched":5157,"irring":5158,"Ġescaped":5159,"Ġordered":5160,"ÅĵItÃ¢":5161,"Ġprovide":5162,"Ġsettled":5163,"Ġlips":5164,"ĠBuzz":5165,"Ġsprinkles":5166,"Ġdiscuss":5167,"Ġgrinned":5168,"Ġtongue":5169,"Ġluggage":5170,"Gordon":5171,"Mor":5172,"Sh":5173,"Ye":5174,"ium":5175,"liday":5176,"zor":5177,"Ġbes":5178,"ĠSunny":5179,"Ġeight":5180,"Ġstad":5181,"Ġyouth":5182,"enty":5183,"Ġseason":5184,"Ġexactly":5185,"Ġcliff":5186,"Ġalright":5187,"Ġtreehouse":5188,"Ġholiday":5189,"Ġprevent":5190,"Ġraised":5191,"Ġrazor":5192,"bey":5193,"Ġletting":5194,"Ġthrilled":5195,"Ġrained":5196,"Ġprinter":5197,"Ġsigns":5198,"oline":5199,"Ġdiscovery":5200,"Ġprayed":5201,"Ġbalan":5202,"ĠBefore":5203,"Ġscratch":5204,"ĠSharing":5205,"Ġbaseball":5206,"ĠBetsy":5207,"Ġolives":5208,"Ġinvestigate":5209,"Ġcomfy":5210,"Ġstadium":5211,"Ouch":5212,"Yum":5213,"eed":5214,"eath":5215,"son":5216,"uel":5217,"Ġsip":5218,"Ġwag":5219,"Ġdied":5220,"Ġpine":5221,"ĠTina":5222,"Ġwashing":5223,"ĠSuzy":5224,"iment":5225,"etch":5226,"Ġbend":5227,"ĠMilo":5228,"Ġsport":5229,"Ġknown":5230,"Ġmakeup":5231,"Ġswamp":5232,"antly":5233,"inky":5234,"Ġcalls":5235,"Ġhardly":5236,"ape":5237,"Ġturning":5238,"Ġcreation":5239,"thm":5240,"ĠRosie":5241,"Ġbites":5242,"Ġcontro":5243,"Ġfloating":5244,"Ġfixing":5245,"Ġswims":5246,"Ġshopping":5247,"Sammy":5248,"Ġcomple":5249,"uggles":5250,"Ġbeneath":5251,"Ġmailman":5252,"Ġeasily":5253,"ĠZoe":5254,"Ġhonk":5255,"Ġworms":5256,"Before":5257,"Ġhurried":5258,"Ġfireworks":5259,"Ġobserve":5260,"Ġrepeat":5261,"abel":5262,"Baldi":5263,"ĠFreddy":5264,"Ġrefreshed":5265,"Ġsimple":5266,"Ġsunflower":5267,"Ġrhythm":5268,"Al":5269,"ude":5270,"Ġwre":5271,"Ġberry":5272,"Ġmall":5273,"ĠSm":5274,"sters":5275,"ĠMat":5276,"Ġseas":5277,"ĠAngel":5278,"Ġexit":5279,"umble":5280,"Ġrang":5281,"ĠDanny":5282,"Ġmyself":5283,"Ġvroom":5284,"Ġpeaches":5285,"Ġtruly":5286,"Ġracing":5287,"Ġteasp":5288,"ecture":5289,"Ġunderne":5290,"ĠPenny":5291,"Ġturnip":5292,"Ġrealize":5293,"Ġtrapped":5294,"Ġfloated":5295,"Ġpets":5296,"Ġbeef":5297,"Ġactually":5298,"Ġteaching":5299,"Ġreminder":5300,"Ġtickle":5301,"Ġhorns":5302,"Ġglowing":5303,"Ġcrackers":5304,"Ġprepared":5305,"Ġneighbourhood":5306,"Ġbeans":5307,"ĠPeople":5308,"Ġautom":5309,"Ġeffort":5310,"Ġcompleted":5311,"Ġteaspoon":5312,"Ġunderneath":5313,"Cl":5314,"Dr":5315,"Or":5316,"ales":5317,"go":5318,"hic":5319,"lay":5320,"mble":5321,"xc":5322,"Ġtugged":5323,"Ġwid":5324,"Ġwest":5325,"Ġbunch":5326,"Ġfut":5327,"Ġfest":5328,"Ġlecture":5329,"lee":5330,"Ġrise":5331,"Ġstirring":5332,"Ġhappiest":5333,"ĠIts":5334,"terday":5335,"Ġarea":5336,"Ġoutdo":5337,"Ġtheirs":5338,"Ġscur":5339,"Ġmeowed":5340,"Ġfasc":5341,"ddy":5342,"Ġtremble":5343,"Ġpoppy":5344,"Ġslip":5345,"Ġmass":5346,"Ġpeered":5347,"Ġadult":5348,"Ġchef":5349,"Ġwarmth":5350,"Ġcontest":5351,"ĠLetÃ¢":5352,"Ġmoments":5353,"Ġgrowl":5354,"Ġlandsc":5355,"Ġanswers":5356,"Ġwhistling":5357,"Ġfreeze":5358,"Ġveil":5359,"Ġpracticing":5360,"ĠZoey":5361,"Ġfolded":5362,"ĠChr":5363,"Ġguns":5364,"ĠStop":5365,"Ġpillows":5366,"Ġclaps":5367,"Ġsucceeded":5368,"Ġdisagreed":5369,"Ġoperation":5370,"Ġinvitation":5371,"Ġbeside":5372,"Ġautomob":5373,"Ġfuture":5374,"Ġfascin":5375,"Ġlandscape":5376,"Kate":5377,"Ro":5378,"vet":5379,"Ġbill":5380,"inarian":5381,"Ġduring":5382,"ĠTony":5383,"ira":5384,"Ġrings":5385,"Ġripped":5386,"Ġstitch":5387,"htray":5388,"alph":5389,"Ġashtray":5390,"Ġroot":5391,"Ġtremb":5392,"Ġblink":5393,"ĠDid":5394,"Ġveter":5395,"Ġwatered":5396,"Ġsnakes":5397,"Ġfog":5398,"ĠCat":5399,"Ġrag":5400,"Ġwritten":5401,"ffic":5402,"Ġwaits":5403,"Ġtraffic":5404,"Ġworks":5405,"Ġyelling":5406,"Ġzig":5407,"Ġcatching":5408,"Ġparts":5409,"Ġsteel":5410,"Ġplanets":5411,"Ġmouths":5412,"Ġaccom":5413,"Ġneighbors":5414,"Ġbringing":5415,"Ġvehic":5416,"Ġproblems":5417,"izzie":5418,"Ġserved":5419,"Ġgenie":5420,"Ġclearing":5421,"unday":5422,"Ġstealing":5423,"ĠSnuggles":5424,"Ġbricks":5425,"Ġbleeding":5426,"Ġsatisfied":5427,"Moral":5428,"Ġcontrol":5429,"Ġoutdoors":5430,"Ġveterinarian":5431,"Ann":5432,"First":5433,"Mark":5434,"Peter":5435,"rise":5436,"Ġsigh":5437,"Ġhate":5438,"Ġcell":5439,"Ġlines":5440,"Ġpitch":5441,"ĠSunday":5442,"ords":5443,"Ġherbs":5444,"Ġequ":5445,"aded":5446,"adly":5447,"Ġwanting":5448,"Ġweren":5449,"allen":5450,"Ġleather":5451,"Ġagreement":5452,"Ġchallen":5453,"Ġvict":5454,"Ġsunrise":5455,"Ġimage":5456,"Ġtease":5457,"Ġlets":5458,"ĠPut":5459,"Ġideas":5460,"Ġkeeps":5461,"ĠGr":5462,"Ġwarn":5463,"Ġfoods":5464,"Ġmonsters":5465,"Ġcontain":5466,"Ġsteak":5467,"Ġlands":5468,"Ġbottles":5469,"Ġexamined":5470,"Ġlemons":5471,"Ġapologize":5472,"Ġpebbles":5473,"Ġdusty":5474,"Grace":5475,"uzie":5476,"Ġlabel":5477,"ĠFreddie":5478,"Emily":5479,"Ġstripes":5480,"Really":5481,"Ġpupil":5482,"Ġsandcastle":5483,"Ġbrushes":5484,"Ġsiren":5485,"Ġaccompl":5486,"Jake":5487,"Le":5488,"Mar":5489,"aster":5490,"cers":5491,"zen":5492,"zag":5493,"ndar":5494,"Ġmitten":5495,"Ġpout":5496,"ences":5497,"Ġhanger":5498,"ĠSanta":5499,"lendar":5500,"Ġherb":5501,"Ġsoaring":5502,"Ġweap":5503,"Ġjail":5504,"ĠAn":5505,"umes":5506,"ĠJamie":5507,"Ġallig":5508,"Ġcalendar":5509,"Ġsadness":5510,"ĠLou":5511,"Ġvent":5512,"Ġslice":5513,"ĠEveryday":5514,"Ġstrings":5515,"Ġbudge":5516,"ÅĵThank":5517,"Ġbreaking":5518,"Ġreplace":5519,"Ġcuriosity":5520,"Ġhated":5521,"ateri":5522,"Ġwooden":5523,"ĠKing":5524,"Ġsparkles":5525,"Ġplanted":5526,"Ġguy":5527,"Ġwinning":5528,"Ġfreez":5529,"Ġparked":5530,"Ġprotected":5531,"Ġmarkers":5532,"Ġradishes":5533,"Ġsolved":5534,"Ġsilence":5535,"Ġreceive":5536,"Ġpeanuts":5537,"Ġsneezed":5538,"Ġdisturbed":5539,"ĠRover":5540,"Ġgrocery":5541,"Ġrevealed":5542,"Ġchirping":5543,"Ġvacation":5544,"ĠSmith":5545,"Ġfestival":5546,"Ġautomobile":5547,"Ġzigzag":5548,"Teddy":5549,"big":5550,"cc":5551,"ffe":5552,"ky":5553,"njoy":5554,"uri":5555,"Ġtoe":5556,"Ġlined":5557,"Ġdet":5558,"Ġheat":5559,"Ġhesit":5560,"Ġmateri":5561,"ense":5562,"esa":5563,"Ġsoaked":5564,"ĠBinky":5565,"ents":5566,"Ġbare":5567,"ĠMesa":5568,"Ġloving":5569,"umbs":5570,"ĠJess":5571,"Ġnovel":5572,"Ġscient":5573,"Ġroses":5574,"Ġfash":5575,"ĠLater":5576,"Ġchat":5577,"Ġchore":5578,"Ġdownstairs":5579,"Ġsled":5580,"Ġstruck":5581,"Ġstruggled":5582,"Ġoverjoy":5583,"Ġglitter":5584,"Ġremained":5585,"ĠGeorge":5586,"Ġtowels":5587,"Ġwaiter":5588,"Ġtracks":5589,"Ġsinger":5590,"Ġfrozen":5591,"Ġdrift":5592,"Ġsetting":5593,"Ġcontinue":5594,"Ġcompany":5595,"Ġkicking":5596,"Ġsliding":5597,"Ġdecorated":5598,"Ġpoliceman":5599,"Ġtwirling":5600,"Ġweeks":5601,"Ġurged":5602,"Ġsneeze":5603,"Ġpotatoes":5604,"Ġrecognized":5605,"Ġrecognize":5606,"uesday":5607,"Ġburrow":5608,"Ġexercise":5609,"Ġgazed":5610,"Ġfirefight":5611,"edding":5612,"Ġbillboard":5613,"ffee":5614,"Ġfashion":5615,"Ġoverjoyed":5616,"Bobby":5617,"cles":5618,"cope":5619,"gers":5620,"ury":5621,"wo":5622,"worm":5623,"Ġsway":5624,"Ġbang":5625,"Ġfetch":5626,"Ġcor":5627,"ĠTuesday":5628,"omas":5629,"Ġobey":5630,"Ġnone":5631,"Ġnicer":5632,"Ġemer":5633,"igi":5634,"Ġlied":5635,"ĠMay":5636,"ĠItÃ¢":5637,"Ġspill":5638,"ĠJay":5639,"Ġcakes":5640,"Ġbrid":5641,"Ġranger":5642,"Ġcoffee":5643,"ashed":5644,"ĠFro":5645,"ĠFirst":5646,"Ġanytime":5647,"Ġpeel":5648,"ocky":5649,"ĠNina":5650,"Ġowned":5651,"ĠRes":5652,"Ġtastes":5653,"Ġmission":5654,"ĠwasnÃ¢":5655,"Ġbuckets":5656,"Ġdesert":5657,"Ġbouncy":5658,"Ġzooming":5659,"ÅĵIÃ¢":5660,"Ġzookeeper":5661,"ĠSomeone":5662,"Ġcostumes":5663,"Ġargued":5664,"Ġshivering":5665,"Ġsneaked":5666,"Ġsquealed":5667,"ÅĵThatÃ¢":5668,"Ġintroduce":5669,"Ġbreathe":5670,"ĠSnowy":5671,"Ġinchworm":5672,"Ġcrowd":5673,"Yeah":5674,"Ġwreck":5675,"Ġfascinated":5676,"Ġalligator":5677,"bigail":5678,"Ġscientist":5679,"Luckily":5680,"Millie":5681,"bug":5682,"eve":5683,"kins":5684,"ler":5685,"len":5686,"shing":5687,"ux":5688,"ĠX":5689,"hell":5690,"Ġtut":5691,"Ġwow":5692,"Ġwedding":5693,"Ġlux":5694,"oming":5695,"Ġnation":5696,"ĠHenry":5697,"irped":5698,"ĠBuzzy":5699,"ĠMaisy":5700,"!\",":5701,"Ġgoals":5702,"ĠJan":5703,"Ġallow":5704,"Ġclick":5705,"Ġmuddy":5706,"Ġchirped":5707,"ases":5708,"isten":5709,"Ġmaze":5710,"Ġsunlight":5711,"Ġpretti":5712,"Ġwond":5713,"ÅĵDon":5714,"Ġdancers":5715,"Ġkeeper":5716,"ĠNot":5717,"agers":5718,"avi":5719,"Ġpatience":5720,"Ġpastries":5721,"olin":5722,"Ġbuckle":5723,"Ġdrinks":5724,"Ġrespons":5725,"Ġactiv":5726,"Ġcelebrating":5727,"ĠHowever":5728,"Ġvillagers":5729,"Ġprayer":5730,"Ġhurric":5731,"Ġunlocked":5732,"Ġmemory":5733,"looking":5734,"Ġribbons":5735,"Ġsettle":5736,"Ġpadd":5737,"Ġquacked":5738,"Ġtwinkling":5739,"Ġinstr":5740,"Ġbakery":5741,"xygen":5742,"Ġsurrounded":5743,"Ġbegin":5744,"Ġmassage":5745,"Ġguys":5746,"Ġbridges":5747,"Ġprettiest":5748,"Ġhurricane":5749,"Ah":5750,"Run":5751,"Un":5752,"bies":5753,"cus":5754,"gie":5755,"rr":5756,"Ġvel":5757,"Ġty":5758,"Ġtim":5759,"Ġwaist":5760,"Ġmittens":5761,"Ġgym":5762,"Ġglee":5763,"aty":5764,"ĠSuzie":5765,"Ġev":5766,"Ġrust":5767,"Ġsoak":5768,"ĠBye":5769,"Ġliqu":5770,"seek":5771,"Ġbabies":5772,"ĠMilly":5773,"Ġloose":5774,"Ġsec":5775,"Ġseven":5776,"Ġcaut":5777,"Ġscoop":5778,"icky":5779,"ĠWally":5780,"Ġnewsp":5781,"ĠDr":5782,"Ġgrant":5783,"mare":5784,"ĠCindy":5785,"ÅĵHello":5786,"ÅĵWhy":5787,"aper":5788,"Ġsmiley":5789,"Ġwondering":5790,"Ġnightmare":5791,"Ġforgi":5792,"Ġbeha":5793,"aggie":5794,"Ġperched":5795,"Ġsteep":5796,"Ġmiles":5797,"Ġsupplies":5798,"Ġgiggling":5799,"Ġgrandd":5800,"Ġexpected":5801,"Ġmotion":5802,"Ġpassing":5803,"Ġexperiment":5804,"Ġtwisted":5805,"Ġpowers":5806,"Ġsymbols":5807,"ĠBetty":5808,"Ġprune":5809,"Ġregretted":5810,"Ġsubway":5811,"ĠFollow":5812,"Ġfamilies":5813,"Ġweapon":5814,"Ġbarely":5815,"Ġluxury":5816,"Ġvelvet":5817,"Ġliquid":5818,"Ġnewspaper":5819,"\",":5820,"Exc":5821,"ON":5822,"Some":5823,"TE":5824,"yond":5825,"Ġtide":5826,"Ġbank":5827,"Ġfart":5828,"Ġfuel":5829,"atie":5830,"ĠHoppy":5831,"ĠHannah":5832,"cky":5833,"Ġevent":5834,"ooly":5835,"Ġbeyond":5836,"Ġweb":5837,"ĠMany":5838,"icular":5839,"Ġcause":5840,"Ġwhatever":5841,"Ġstartled":5842,"Ġworries":5843,"Ġchases":5844,"Ġswords":5845,"Ġgotten":5846,"Ġvines":5847,"Ġskipping":5848,"ĠCra":5849,"Ġkindly":5850,"Ġbye":5851,"ctions":5852,"ÅĵWe":5853,"ipment":5854,"ĠPink":5855,"ĠPrin":5856,"Ġwrites":5857,"Ġwherever":5858,"Ġsweeties":5859,"ĠRa":5860,"Ġfiremen":5861,"Ġladybug":5862,"Ġlighter":5863,"Ġparticular":5864,"Ġruin":5865,"Ġarrive":5866,"ĠOl":5867,"Ġcovers":5868,"Ġmedals":5869,"Ġexpect":5870,"Goodbye":5871,"Ġcheering":5872,"Ġsorting":5873,"Ġstretching":5874,"Ġrides":5875,"Ġfigured":5876,"Ġsights":5877,"ĠSusan":5878,"Ġshadows":5879,"Ġshelves":5880,"Ġgiraff":5881,"Ġearthqu":5882,"Ġitchy":5883,"Ġprovided":5884,"Happy":5885,"Ġsurface":5886,"Ġdirection":5887,"Ġpuppet":5888,"Ġadmiring":5889,"Ġequipment":5890,"Ġvictory":5891,"Ġchores":5892,"Ġwonders":5893,"Ġcautious":5894,".'":5895,"EE":5896,"James":5897,"Pa":5898,"Remember":5899,"Tweet":5900,"ael":5901,"hil":5902,"ib":5903,"mas":5904,"ners":5905,"nies":5906,"uzz":5907,"you":5908,"ĠOnce":5909,"Ġsings":5910,"itched":5911,"Ġdip":5912,"Ġoxygen":5913,"ays":5914,"Ġthro":5915,"esome":5916,"Ġstare":5917,"Ġhissed":5918,"Ġsocks":5919,"ĠBir":5920,"ĠBig":5921,"ĠBee":5922,"Ġshock":5923,"Ġnect":5924,"alf":5925,"ĠAd":5926,"Ġago":5927,"Ġranch":5928,"Ġcond":5929,"ĠEnjoy":5930,"istmas":5931,"using":5932,"Ġeveryday":5933,"Ġvowed":5934,"Ġpoking":5935,"Ġcatches":5936,"Ġpeck":5937,"Ġjoking":5938,"ĠCarl":5939,"Ġglo":5940,"ÅĵOh":5941,"Ġbelts":5942,"ĠRalph":5943,"ĠJohnson":5944,"Ġrolls":5945,"ichael":5946,"Ġpolished":5947,"Ġsitu":5948,"Ġaccidents":5949,"Ġgifts":5950,"Ġgathering":5951,"Ġmarker":5952,"Ġeasier":5953,"Ġsafer":5954,"Ġtune":5955,"Ġpraying":5956,"Ġtickets":5957,"Ġvanish":5958,"ĠBeing":5959,"ĠBlack":5960,"Ġselling":5961,"Ġcuddle":5962,"Ġornaments":5963,"Ġshivered":5964,"Ġencourage":5965,"Ġloaded":5966,"Ġacorns":5967,"Ġwaffle":5968,"ĠBobbie":5969,"ĠChristmas":5970,"Ġventured":5971,"ÅĵDonÃ¢":5972,"Ġgiraffes":5973,"Paul":5974,"Ġthroat":5975,"Ġnectar":5976,"Bl":5977,"Fl":5978,"Harry":5979,"Life":5980,"Qu":5981,"Sus":5982,"bric":5983,"cher":5984,"mother":5985,"oh":5986,"pected":5987,"ĠY":5988,"hest":5989,"Ġtour":5990,"rees":5991,"itely":5992,"Ġdipped":5993,"Ġmention":5994,"ĠTed":5995,"ĠTilly":5996,"atul":5997,"Ġbeard":5998,"Ġplenty":5999,"Ġwears":6000,"Ġboom":6001,"Ġmane":6002,"Ġbrushed":6003,"Ġfabric":6004,"ieve":6005,"ĠLizzie":6006,"Ġchoo":6007,"Ġchips":6008,"ĠFor":6009,"Ġslapped":6010,"Ġtwin":6011,"izing":6012,"Ġconv":6013,"Ġdragged":6014,"Ġstole":6015,"Ġbroom":6016,"Ġhandsome":6017,"Ġsticking":6018,"Ġcrabs":6019,"Afterwards":6020,"Ġtouching":6021,"Ġcuts":6022,"Ġfroze":6023,"Ġgrowling":6024,"Ġpastel":6025,"Ġvisiting":6026,"Ġrivers":6027,"brush":6028,"Ġcollection":6029,"Ġcomforted":6030,"Ġsplashes":6031,"Ġentr":6032,"Ġringing":6033,"Ġpouring":6034,"Ġspraying":6035,"ĠLeave":6036,"Ġwandering":6037,"Ġcircus":6038,"Ġawesome":6039,"ĠAnne":6040,"Ġinsects":6041,"Ġsqueak":6042,"ĠBubbles":6043,"Ġinclude":6044,"Ġwiggle":6045,"Ġwiggled":6046,"Ġolive":6047,"Ġconfident":6048,"Ġintroduc":6049,"Ġprunes":6050,"Ġkneeled":6051,"Ġstudied":6052,"Ġtravell":6053,"Ġincluded":6054,"Ġseashell":6055,"Ġvehicle":6056,"Ġcorre":6057,"Ġearthquake":6058,"Dave":6059,"For":6060,"Lola":6061,"Pete":6062,"Rose":6063,"cip":6064,"ears":6065,"ivery":6066,"jam":6067,"loe":6068,"nes":6069,"Ġti":6070,"Ġsense":6071,"ednes":6072,"Ġfir":6073,"Ġfreed":6074,"Ġcough":6075,"ĠSorry":6076,"imy":6077,"Ġitem":6078,"ĠHa":6079,"igers":6080,"Ġbelly":6081,"Ġstair":6082,"riage":6083,"Ġweighed":6084,"elery":6085,"Ġrelease":6086,"ics":6087,"lph":6088,"ĠJax":6089,"Ġfail":6090,"Ġflap":6091,"Ġflames":6092,"Ġeverybody":6093,"Ġvide":6094,"Ġslap":6095,"Ġpears":6096,"Ġraces":6097,"Those":6098,"Ġrocked":6099,"ĠGigi":6100,"Ġcolored":6101,"Ġunf":6102,"Ġunex":6103,"thank":6104,"Ġimportance":6105,"Ġtalent":6106,"ĠRocky":6107,"Ġrested":6108,"boat":6109,"Ġprinted":6110,"Ġdrives":6111,"Ġsteer":6112,"Ġreluct":6113,"Ġmatching":6114,"Ġyesterday":6115,"Ġsuitc":6116,"Ġmusician":6117,"Ġattack":6118,"Ġkeys":6119,"Ġsecrets":6120,"Ġmarks":6121,"Ġtrips":6122,"balls":6123,"Ġpizzas":6124,"Ġsurv":6125,"Ġchewing":6126,"Ġnetwork":6127,"Ġjogging":6128,"Ġpenguins":6129,"Ġcuddly":6130,"Ġpiles":6131,"Ġrubbing":6132,"Ġstudying":6133,"ĠAlways":6134,"Charlie":6135,"Ġbaker":6136,"Ġfreezer":6137,"urious":6138,"Ġfirefighters":6139,"Ġtutor":6140,"Ġinstruct":6141,"Ġfarther":6142,"ednesday":6143,"Ġfirm":6144,"Ġunexpected":6145,"Bad":6146,"Fine":6147,"Kitty":6148,"Mr":6149,"iar":6150,"oed":6151,"ossible":6152,"yan":6153,"zing":6154,"Ġwound":6155,"reat":6156,"Ġfara":6157,"Ġcelery":6158,"Ġlimes":6159,"ern":6160,"Ġgems":6161,"ĠSleep":6162,"anne":6163,"ution":6164,"igning":6165,"Ġrumble":6166,"amb":6167,"Ġstung":6168,"ados":6169,"Ġweight":6170,"sequ":6171,"ĠAbigail":6172,"Ġexist":6173,"icorn":6174,"Ġnoon":6175,"Ġnoses":6176,"opes":6177,"ĠWooly":6178,"ĠWednesday":6179,"Ġfaced":6180,"Ġlap":6181,"Ġhugging":6182,"Ġgoodnight":6183,"Ġflood":6184,"Ġflav":6185,"Ġdecides":6186,"istance":6187,"usted":6188,"antha":6189,"Ġlearns":6190,"Ġslam":6191,"Ġusual":6192,"ÅĵThis":6193,"Ġremote":6194,"Ġimpossible":6195,"aped":6196,"Ġdrag":6197,"Ġunicorn":6198,"though":6199,"Ġvoices":6200,"Ġcracked":6201,"Joey":6202,"Ġprints":6203,"Ġcrumbs":6204,"Ġpretends":6205,"Ġsearches":6206,"Ġmuscle":6207,"Ġmuscles":6208,"Ġprincesses":6209,"Ġpockets":6210,"Ġcelebration":6211,"Ġdiscovering":6212,"Ġwires":6213,"Ġwhispers":6214,"Ġseeker":6215,"Ġrefle":6216,"Ġawake":6217,"Ġborrowed":6218,"Ġleader":6219,"Ġleading":6220,"Ġmelting":6221,"Ġperformance":6222,"Ġrecorded":6223,"Ġtricky":6224,"Ġavocados":6225,"Ġsneaky":6226,"Ġtomatoes":6227,"Ġapplauded":6228,"Ġpurred":6229,"Ġproperly":6230,"ĠMatt":6231,"ĠAngela":6232,"Leo":6233,"Ġemergen":6234,"Ġactivities":6235,"Ġbehaved":6236,"ĠRabbit":6237,"Ġentrance":6238,"cipal":6239,"Ġsuitcase":6240,"Ġfaraway":6241,"AT":6242,"Alex":6243,"Somet":6244,"cra":6245,"fit":6246,"fall":6247,"pite":6248,"va":6249,"Ġaud":6250,"Ġwink":6251,"Ġtonight":6252,"Ġbumpy":6253,"int":6254,"Ġcal":6255,"Ġda":6256,"Ġdared":6257,"Ġdots":6258,"Ġmate":6259,"ĠTara":6260,"arb":6261,"atched":6262,"ĠThese":6263,"ĠSw":6264,"ĠSure":6265,"oni":6266,"Ġthorn":6267,"Ġeast":6268,"Ġrisk":6269,"Ġbeam":6270,"ammy":6271,"ades":6272,"Ġbaked":6273,"ĠMabel":6274,"Ġaren":6275,"Ġoutfit":6276,"ĠAlly":6277,"ulu":6278,"Ġexha":6279,"Ġbackwards":6280,"icked":6281,"Ġswooped":6282,"Ġslimy":6283,"Ġgreet":6284,"Ġteles":6285,"Ġteased":6286,"ĠJoanne":6287,"ÅĵCan":6288,"Ġcloses":6289,"Ġcons":6290,"Ġcones":6291,"ĠGet":6292,"ths":6293,"Ġlistens":6294,"pered":6295,"Ġdelivery":6296,"Ġdeal":6297,"Ġbeloved":6298,"Ġsweets":6299,"ĠThomas":6300,"Ġresting":6301,"Ġsingle":6302,"Ġparties":6303,"Ġmatched":6304,"âĢĶ":6305,"Ġpatted":6306,"ĠEmmy":6307,"Ġpacking":6308,"Ġhealed":6309,"ĠOut":6310,"Andy":6311,"Ġdeser":6312,"Ġacted":6313,"Ġspoons":6314,"ĠZero":6315,"Ġscreaming":6316,"Ġmovies":6317,"Ġblows":6318,"Ġscru":6319,"Ġsilent":6320,"However":6321,"Ġbumps":6322,"ĠPaw":6323,"Ġzebras":6324,"Ġnails":6325,"Ġhelmets":6326,"Ġcurly":6327,"ĠJulie":6328,"Ġsquares":6329,"Ġcountryside":6330,"Ġobserved":6331,"Ġcurtains":6332,"âĤ¬âĢĿ":6333,"Ġgaze":6334,"Ġfluttered":6335,"ĠSparky":6336,"ĠSparkle":6337,"Ġachieved":6338,"Ġviolin":6339,"ĠCaroline":6340,"Ġscurried":6341,"Ġtrembling":6342,"Ġaccomplishment":6343,"Ġpouted":6344,"Ġresponsible":6345,"Ġevil":6346,"ĠPrincipal":6347,"ĠHappy":6348,"Ġreluctantly":6349,"sequences":6350,"Ġexhausted":6351,"Ġtelescope":6352,"Br":6353,"Bella":6354,"Mrs":6355,"RE":6356,"Uh":6357,"ean":6358,"olph":6359,"tier":6360,"Ġ2":6361,"Ġsides":6362,"Ġwins":6363,"ouch":6364,"Ġdam":6365,"Ġdie":6366,"Ġhen":6367,"Ġmerry":6368,"ido":6369,"atur":6370,"ĠSadly":6371,"Ġropes":6372,"Ġstem":6373,"step":6374,"ĠBy":6375,"ĠBeth":6376,"ĠBreen":6377,"Ġkites":6378,"ĠMaggie":6379,"Ġrele":6380,"Ġspike":6381,"Ġroots":6382,"Ġfact":6383,"Ġhomework":6384,"ĠDuke":6385,"essie":6386,"bbing":6387,"Ġmaster":6388,"Ġprettier":6389,"Ġsnatched":6390,"Ġstays":6391,"ÅĵWow":6392,"Ġremoved":6393,"Ġconn":6394,"Ġconsequences":6395,"ĠGreen":6396,"acy":6397,"Ġworker":6398,"Ġdefe":6399,"Ġopening":6400,"Ġseesaw":6401,"Ġdraws":6402,"Ġdarkness":6403,"Ġhider":6404,"Ġmarked":6405,"Ġmarriage":6406,"otton":6407,"uggle":6408,"Ġneighbours":6409,"Ġreaching":6410,"anging":6411,"Ġchoices":6412,"Ġpots":6413,"ounce":6414,"Ġspoonful":6415,"Ġentire":6416,"Ġroads":6417,"Ġrespected":6418,"Ġscaring":6419,"Ġfolding":6420,"Ġdecorating":6421,"udolph":6422,"ĠSteve":6423,"Ġmodels":6424,"Ġwipes":6425,"Ġwraps":6426,"Ġbloomed":6427,"Ġblooming":6428,"Ġcompetition":6429,"Ġscratches":6430,"Ġknocks":6431,"Ġpermit":6432,"imply":6433,"uctor":6434,"Ġpunishment":6435,"Ġpedal":6436,"Clara":6437,"Ġgranddaughter":6438,"Excuse":6439,"Ġconductor":6440,"Ġgloves":6441,"Ġsituation":6442,"Ġintroduced":6443,"Ġinstructions":6444,"Sometimes":6445,"Ella":6446,"Ellie":6447,"Fin":6448,"Jul":6449,"Time":6450,"ratul":6451,"zes":6452,"Ġtang":6453,"Ġais":6454,"Ġsimply":6455,"Ġtouc":6456,"Ġbars":6457,"Ġfuzzy":6458,"Ġcous":6459,"Ġmice":6460,"ĠTiny":6461,"ĠTwo":6462,"ative":6463,"Ġnuzz":6464,"ening":6465,"onnie":6466,"llen":6467,"Ġinsp":6468,"Ġearn":6469,"Ġrip":6470,"Ġplucked":6471,"sting":6472,"Ġform":6473,"idey":6474,"Ġgobbled":6475,"ĠgirlÃ¢":6476,"ĠcanÃ¢":6477,"Ġargu":6478,"Ġscored":6479,"Ġscales":6480,"Ġali":6481,"Ġrobb":6482,"ongratul":6483,"Ġbirdhouse":6484,"ĠLizzy":6485,"Ġflapping":6486,"Ġchip":6487,"Ġchos":6488,"asm":6489,"arney":6490,"Ġposter":6491,"Ġknees":6492,"Ġhowever":6493,"Ġtwice":6494,"Ġshaped":6495,"rents":6496,"Ġglued":6497,"ÅĵDo":6498,"Ġdollhouse":6499,"ĠPlay":6500,"Ġcreations":6501,"Ġwrink":6502,"Ġheadcra":6503,"Ġdef":6504,"ĠRoo":6505,"ĠThose":6506,"ĠDolly":6507,"Ġfrosting":6508,"Ġrubs":6509,"ĠKeep":6510,"Ġpolishing":6511,"Ġplanned":6512,"Ġjoyful":6513,"Ġsailboat":6514,"Ġpaintings":6515,"Ġguest":6516,"ments":6517,"Ġshops":6518,"Ġwrapping":6519,"Ġkicks":6520,"Ġshirts":6521,"Ġrainbows":6522,"Ġvalued":6523,"Ġdecoration":6524,"Ġembarrass":6525,"Ġpassport":6526,"Ġrewarded":6527,"Ġadding":6528,"Ġpeeking":6529,"Ġotters":6530,"Ġhallway":6531,"Ġseparated":6532,"Ġshorts":6533,"Ġrepeated":6534,"Ġstamps":6535,"Ġpunished":6536,"Ġrecommended":6537,"Ġsandcastles":6538,"Ġdirections":6539,"Ġwaffles":6540,"lowly":6541,"Ġachieve":6542,"Ġbalancing":6543,"Ġchallenge":6544,"ĠGrumpy":6545,"Ġhesitant":6546,"Ġmaterials":6547,"ĠResistance":6548,"Ġcautiously":6549,"Fluffy":6550,"Susie":6551,"Ġemergency":6552,"Ġaudience":6553,"ĠSweep":6554,"Ġreleased":6555,"Ġarguing":6556,"Ġchosen":6557,"An":6558,"EC":6559,"HE":6560,"Polly":6561,"Very":6562,"aren":6563,"bur":6564,"cuit":6565,"lo":6566,"mies":6567,"ping":6568,"hew":6569,"Ġtip":6570,"Ġaff":6571,"Ġbun":6572,"Ġbully":6573,"Ġwadd":6574,"Ġfant":6575,"Ġcust":6576,"Ġden":6577,"ĠToto":6578,"iscuit":6579,"ider":6580,"Ġnanny":6581,"Ġsadd":6582,"ana":6583,"Ġthird":6584,"ĠyouÃ¢":6585,"Ġplayers":6586,"ĠBer":6587,"ĠBoo":6588,"ĠBonnie":6589,"unched":6590,"Ġshown":6591,"Ġshined":6592,"Ġlosing":6593,"urry":6594,"ĠAunt":6595,"Ġbacked":6596,"Ġcape":6597,"opsy":6598,"Ġfault":6599,"Ġyourselves":6600,"Ġwaterfall":6601,"izon":6602,"ĠCara":6603,"Ġbravery":6604,"Ġwobb":6605,"Ġunderground":6606,"ÅĵMommy":6607,"Ġreality":6608,"Ġrocking":6609,"Ġdrawn":6610,"aced":6611,"Ġsquish":6612,"Ġheading":6613,"Ġwarmer":6614,"ĠRudolph":6615,"itches":6616,"Ġbehavi":6617,"Ġcutting":6618,"Ġhearing":6619,"Ġfilling":6620,"Ġbows":6621,"Ġsnowf":6622,"Ġsnowballs":6623,"Ġcreating":6624,"Ġhorizon":6625,"Ġthreat":6626,"Ġsailors":6627,"Ġpastels":6628,"Ġstaring":6629,"Ġwinked":6630,"Ġwinner":6631,"Ġphot":6632,"Ġhealth":6633,"ogo":6634,"Ġbowls":6635,"ĠOw":6636,"Ġinviting":6637,"Ġcoloured":6638,"Ġactions":6639,"Ġgrandmother":6640,"Ġprotecting":6641,"Ġscarves":6642,"Ġspeaking":6643,"Ġsalty":6644,"Ġdived":6645,"Ġpleasure":6646,"Ġsolution":6647,"ĠStella":6648,"Ġtickled":6649,"Ġhambur":6650,"Ġpencils":6651,"Ġheroes":6652,"Ġknights":6653,"Ġgracefully":6654,"Grandpa":6655,"Ġdrums":6656,"Ġseems":6657,"Ġunpacked":6658,"Ġlasers":6659,"Ġcompletely":6660,"Ġweeping":6661,"Ġreveal":6662,"...":6663,"Ġstroked":6664,"lowers":6665,"Ġincrease":6666,"Shh":6667,"Ġbalanced":6668,"Ġsecure":6669,"ĠCrabby":6670,"Ġmentioned":6671,"Ġfailed":6672,"Ġdamage":6673,"Ġaisle":6674,"Ġbunnies":6675,"Ġfantastic":6676,"Ġcustom":6677,"By":6678,"During":6679,"Days":6680,"Lilly":6681,"Mittens":6682,"Play":6683,"Rex":6684,"Surpr":6685,"VE":6686,"bell":6687,"da":6688,"emy":6689,"ror":6690,"tory":6691,"ĠOkay":6692,"hey":6693,"Ġfif":6694,"ition":6695,"Ġcent":6696,"Ġlily":6697,"Ġdar":6698,"Ġmop":6699,"Ġopp":6700,"Ġgon":6701,"Ġgarb":6702,"Ġnibb":6703,"Ġsan":6704,"ĠHop":6705,"Ġeag":6706,"Ġonions":6707,"Ġhistory":6708,"Ġsoaking":6709,"Ġwhales":6710,"lyn":6711,"Ġkilled":6712,"ĠMon":6713,"Ġann":6714,"Ġcans":6715,"Ġarr":6716,"ĠJu":6717,"?\",":6718,"Ġscra":6719,"Ġsomebody":6720,"Ġmeals":6721,"ĠWigg":6722,"Ġagrees":6723,"ĠLa":6724,"Ġswall":6725,"Ġsweep":6726,"plash":6727,"Ġpause":6728,"Ġbecoming":6729,"ĠSamantha":6730,"Ġpecked":6731,"Ġpearl":6732,"Ġcomm":6733,"Ġuntie":6734,"Ġuses":6735,"Ġusually":6736,"Ġbadge":6737,"Ġstaying":6738,"ÅĵLook":6739,"ÅĵCome":6740,"Ġfins":6741,"oys":6742,"ĠSpidey":6743,"coat":6744,"Ġraincoat":6745,"Ġyells":6746,"Ġmonths":6747,"ĠRemember":6748,"ĠRyan":6749,"agull":6750,"Ġreads":6751,"Ġsnowmen":6752,"Ġhides":6753,"Ġtablet":6754,"Ġbuying":6755,"ĠKatie":6756,"Ġpointy":6757,"Ġmisses":6758,"ĠwonÃ¢":6759,"Ġplanning":6760,"Ġmixing":6761,"Ġpaths":6762,"Ġmatters":6763,"Ġinterested":6764,"Ġrobin":6765,"Ġmachines":6766,"Ġdiving":6767,"Ġrecipe":6768,"Toby":6769,"Ġbells":6770,"Ġarrows":6771,"Ġroaring":6772,"Ġindeed":6773,"Ġaddress":6774,"queak":6775,"Ġgrandparents":6776,"Ġdesigned":6777,"Ġmarbles":6778,"Ġleaning":6779,"Ġtwisty":6780,"Ġreversed":6781,"Ġrecording":6782,"Ġmagnets":6783,"Ġstrip":6784,"Ġspeaks":6785,"Ġmasks":6786,"Ġartwork":6787,"Ġforks":6788,"Ġconfl":6789,"Ġcomplaining":6790,"Ġcubes":6791,"Ġmeows":6792,"Ġvibr":6793,"Ġdemanded":6794,"Ġwider":6795,"Ġchefs":6796,"Annie":6797,"Ġsighs":6798,"Ġdrifted":6799,"Ġpaddled":6800,"Ġbeginning":6801,"Ġgreeted":6802,"Ġscrubbed":6803,"ĠBernie":6804,"Ġphotos":6805,"Ġhamburger":6806,"Ġdarling":6807,"Ġgonna":6808,"Ġgarbage":6809,"Ġeagle":6810,"Ad":6811,"Barney":6812,"Ducky":6813,"Ew":6814,"Great":6815,"Mimi":6816,"Nina":6817,"Tina":6818,"cl":6819,"eal":6820,"five":6821,"hins":6822,"ixture":6823,"ody":6824,"tuce":6825,"weed":6826,"yes":6827,"ynn":6828,"zzy":6829,"Ëľ":6830,"Ġast":6831,"Ġwoof":6832,"Ġtoaster":6833,"Ġhi":6834,"Ġhitting":6835,"Ġcoup":6836,"Ġmunch":6837,"Ġmixture":6838,"Ġwasted":6839,"ilities":6840,"Ġgross":6841,"Ġgaz":6842,"ids":6843,"iding":6844,"Ġsale":6845,"ans":6846,"anes":6847,"utt":6848,"Ġech":6849,"Ġyum":6850,"ntil":6851,"Ġplug":6852,"Ġsobbed":6853,"ĠBecause":6854,"ĠBessie":6855,"child":6856,"Ġnotes":6857,"ĠMo":6858,"ĠMichael":6859,"Ġneither":6860,"ters":6861,"Ġseagull":6862,"indr":6863,"arty":6864,"ĠWatch":6865,"Ġroars":6866,"ongo":6867,"Ġage":6868,"iece":6869,"âĤ¬Ëľ":6870,"ĠLuckily":6871,"ĠListen":6872,"ĠLulu":6873,"ĠLynn":6874,"Ġflas":6875,"Ġswirl":6876,"Ġtapped":6877,"ĠFido":6878,"ĠCla":6879,"Ġracc":6880,"Ġraindr":6881,"Ġteasing":6882,"Ġlettuce":6883,"Ġdollars":6884,"Ġfinal":6885,"Ġforehead":6886,"Ġwrist":6887,"Ġstolen":6888,"Ġcoloring":6889,"Ġbedtime":6890,"Ġdeed":6891,"Ġreplaced":6892,"Ġblocking":6893,"Ġgrassy":6894,"ĠRay":6895,"ĠRob":6896,"ĠRobby":6897,"Ġbits":6898,"ĠDoggy":6899,"Ġcrashing":6900,"Ġbusiness":6901,"Ġtops":6902,"ĠAsh":6903,"Ġlessons":6904,"shaped":6905,"Ġpetted":6906,"ottie":6907,"Ġsails":6908,"Ġsigned":6909,"Ġnapkins":6910,"Ġcollap":6911,"Ġbeeh":6912,"Ġhealing":6913,"Ġsisters":6914,"Ġseaweed":6915,"Ġforgetting":6916,"Ġdistract":6917,"Ġbatt":6918,"ĠFlower":6919,"Ġdrivers":6920,"Ġgrandchild":6921,"ĠZip":6922,"ĠZipper":6923,"ĠChloe":6924,"Ġavo":6925,"Ġguessing":6926,"Ġcrystals":6927,"Ġdolphins":6928,"Ġjewelry":6929,"Ġdelivered":6930,"Ġburying":6931,"ĠUnfortunately":6932,"Ġnotebooks":6933,"Ġstomped":6934,"Ġobjects":6935,"Ġpunish":6936,"Ġgroceries":6937,"Ġfluttering":6938,"Ġincluding":6939,"Ġpuppies":6940,"Ġadmiration":6941,"Ġ17":6942,"Ġincreased":6943,"Maria":6944,"Ġtimer":6945,"Ġforgiven":6946,"ĠOlive":6947,"Quick":6948,"Ġreflection":6949,"Ġwrinkled":6950,"Ġvibrant":6951,"Ġcouple":6952,"Ġgazing":6953,"Ġraccoon":6954,"AN":6955,"Dog":6956,"Fr":6957,"Henry":6958,"ION":6959,"Milo":6960,"Pe":6961,"Sandy":6962,"Tr":6963,"Whe":6964,"Woof":6965,"band":6966,"dress":6967,"od":6968,"oor":6969,"ollen":6970,"sm":6971,"sie":6972,"vest":6973,"ware":6974,"ĠYes":6975,"ĠâĢ":6976,"Ġboo":6977,"initely":6978,"Ġmoo":6979,"Ġnine":6980,"ĠSim":6981,"ĠSlowly":6982,"ĠSqueak":6983,"immer":6984,"Ġthud":6985,"ĠHolly":6986,"ĠHalf":6987,"otch":6988,"vers":6989,"ows":6990,"Ġrising":6991,"ria":6992,"ads":6993,"str":6994,"Ġforce":6995,"une":6996,"Ġshoo":6997,"Ġdod":6998,"ĠMel":6999,"Ġrepa":7000,"Ġreason":7001,"Ġsevent":7002,"ĠAbby":7003,"Ġcaused":7004,"Ġscam":7005,"Ġfever":7006,"ept":7007,"Ġflick":7008,"Ġswollen":7009,"Ġswept":7010,"ĠEd":7011,"Ġwilling":7012,"Ġdads":7013,"Ġpoems":7014,"Ġslips":7015,"Ġhandful":7016,"manda":7017,"Ġtwenty":7018,"acey":7019,"Ġskunk":7020,"ĠEverybody":7021,"Ġsnort":7022,"Ġwobbled":7023,"ÅĵHi":7024,"ĠPet":7025,"Ġwrigg":7026,"Ġexplorers":7027,"ĠGogo":7028,"acles":7029,"perature":7030,"Ġafterwards":7031,"Ġworkers":7032,"Ġourselves":7033,"Ġleast":7034,"Ġhairs":7035,"Ġhairdress":7036,"Ġsmelling":7037,"Ġdarker":7038,"Ġfairies":7039,"asha":7040,"Ġtighter":7041,"avid":7042,"Ġmarve":7043,"Ġpolar":7044,"Ġsparks":7045,"Ġcreamy":7046,"Ġstarfish":7047,"Ġproject":7048,"Ġjoining":7049,"Ġhighest":7050,"Ġbaskets":7051,"hog":7052,"ĠOur":7053,"umbling":7054,"Ġpeacefully":7055,"Ġbandages":7056,"ĠFlopsy":7057,"Goodnight":7058,"Ġdriveway":7059,"Ġrobots":7060,"Ġtesting":7061,"Ġsorted":7062,"ĠOnly":7063,"Ġclowns":7064,"Ġstreamers":7065,"Ġfrowns":7066,"Ġfrowning":7067,"Ġnecklaces":7068,"Ġtemperature":7069,"Ġbatteries":7070,"Ġpreparing":7071,"Ġintelligence":7072,"Ġhalls":7073,"ĠOrange":7074,"Ġstrike":7075,"Ġcopy":7076,"Ġstacked":7077,"Ġartist":7078,"Ġrepeating":7079,"Ġminerals":7080,"Ġbasement":7081,"ÅĵYouÃ¢":7082,"Ġsewed":7083,"ĠSnowman":7084,"Ġstudents":7085,"Ġsurroundings":7086,"ĠGoodbye":7087,"Ġsuperheroes":7088,"Ġrequested":7089,"ĠLiza":7090,"Ġwagging":7091,"Ġswimsuit":7092,"Ġscurry":7093,"Ġadults":7094,"Ġgrowls":7095,"Unfortunately":7096,"Ġseashells":7097,"Ġdragons":7098,"Ġrisks":7099,"Ġtangled":7100,"Ġcousin":7101,"Ġnuzzled":7102,"Ġwaddled":7103,"Ġnibbled":7104,"Ġraindrops":7105,"ĠAshley":7106,"Ġbeehive":7107,"Ġrepaired":7108,"Ġhairdresser":7109,"AL":7110,"Curious":7111,"Have":7112,"Hannah":7113,"Nemo":7114,"Put":7115,"Pip":7116,"Poppy":7117,"Penny":7118,"Sophie":7119,"eedy":7120,"iasm":7121,"opper":7122,"please":7123,"piece":7124,"sure":7125,"uild":7126,"Ġouch":7127,"hello":7128,"Ġsigning":7129,"inty":7130,"Ġhund":7131,"Ġcongratul":7132,"Ġlung":7133,"Ġdou":7134,"Ġheel":7135,"Ġheav":7136,"ility":7137,"Ġgap":7138,"Ġni":7139,"Ġnood":7140,"onse":7141,"ĠHoney":7142,"Ġinj":7143,"Ġund":7144,"ading":7145,"Ġsofter":7146,"Ġwept":7147,"ĠBas":7148,"ĠBoth":7149,"ĠBongo":7150,"ĠMouse":7151,"ĠMarty":7152,"Ġlogs":7153,"Ġspat":7154,"inda":7155,"icers":7156,"arky":7157,"Ġcausing":7158,"Ġscri":7159,"Ġbru":7160,"ĠWin":7161,"ĠLinda":7162,"Ġwhose":7163,"Ġflat":7164,"arac":7165,"Ġchanging":7166,"Ġcharac":7167,"Ġpajam":7168,"ĠFan":7169,"ĠFire":7170,"ĠFuzzy":7171,"Ġtramp":7172,"Ġofficers":7173,"ucas":7174,"ĠSocky":7175,"Ġwobble":7176,"ĠletÃ¢":7177,"ÅĵWell":7178,"ĠPin":7179,"Ġdangers":7180,"ĠSpeedy":7181,"Ġnearly":7182,"Ġhops":7183,"Ġsoundly":7184,"Ġache":7185,"Ġgrassho":7186,"Ġsingers":7187,"Ġtallest":7188,"ĠKyle":7189,"Ġcounts":7190,"Ġtails":7191,"Ġplans":7192,"Ġpaintbrush":7193,"Ġteaches":7194,"Ġbuckled":7195,"Ġstreets":7196,"ĠOp":7197,"Ġresponse":7198,"Ġfits":7199,"Ġpans":7200,"Ġpanicked":7201,"Ġimagining":7202,"Ġcooper":7203,"erald":7204,"Ġsource":7205,"Ġticking":7206,"Ġdetermination":7207,"Ġthicker":7208,"Ġtentacles":7209,"Ġjackets":7210,"ĠMarcus":7211,"Ġstatues":7212,"Ġperformed":7213,"Ġpumpkins":7214,"ĠFinn":7215,"Ġcheaper":7216,"ĠUntil":7217,"Ġspells":7218,"Ġwindowsill":7219,"Ġlollipops":7220,"Ġtravels":7221,"Ġneatly":7222,"Ġpostman":7223,"retty":7224,"Ġbuzzed":7225,"Ġbackpacks":7226,"ĠPaula":7227,"Ġburst":7228,"Ġimproved":7229,"Ġenthusiasm":7230,"ĠRoger":7231,"Ġquarreling":7232,"Ġexercises":7233,"Ġsurfboard":7234,"Ġsixty":7235,"Ġyielded":7236,"Ġrows":7237,"Ġproper":7238,"Ġpedals":7239,"Always":7240,"Ġwidened":7241,"Roar":7242,"Ġtrembled":7243,"Ġswaying":7244,"ĠXen":7245,"ĠNothing":7246,"Ġrusty":7247,"Ġrustling":7248,"Ġgranted":7249,"ĠAdam":7250,"Blue":7251,"Ġconvince":7252,"Ġtravelled":7253,"Ġcorrect":7254,"Ġtipt":7255,"Ġfirmly":7256,"Ġslammed":7257,"Ġthorns":7258,"Ġinspired":7259,"Ġdefinitely":7260,"Ġwobbly":7261,"Ġswallowed":7262,"Ġconflict":7263,"Ġavoid":7264,"Ġhundred":7265,"ĠBasics":7266,"Ġpajamas":7267,"Ġtrampoline":7268,"Ġgrasshopper":7269,"?'":7270,"George":7271,"IL":7272,"IN":7273,"Kim":7274,"OU":7275,"Our":7276,"Pat":7277,"Rachel":7278,"Sadly":7279,"aven":7280,"bra":7281,"cie":7282,"cused":7283,"form":7284,"gg":7285,"line":7286,"mit":7287,"oke":7288,"ps":7289,"ther":7290,"we":7291,"while":7292,"Ġill":7293,"Ġtin":7294,"Ġtuck":7295,"Ġtigers":7296,"Ġtodd":7297,"inny":7298,"Ġhus":7299,"Ġcotton":7300,"Ġlun":7301,"Ġlower":7302,"Ġdama":7303,"Ġmes":7304,"Ġpens":7305,"ĠTammy":7306,"arrow":7307,"ingly":7308,"Ġgest":7309,"idnight":7310,"Ġnin":7311,"Ġnur":7312,"Ġnapping":7313,"ĠSix":7314,"anced":7315,"etention":7316,"Ġyel":7317,"ighing":7318,"Ġrout":7319,"Ġripe":7320,"Ġbeads":7321,"ĠIzzy":7322,"ppers":7323,"river":7324,"Ġplayroom":7325,"Ġforty":7326,"ĠBounce":7327,"eline":7328,"chy":7329,"ĠMidnight":7330,"Ġneare":7331,"Ġaside":7332,"ĠAbbie":7333,"Ġspins":7334,"Ġexcept":7335,"ĠJones":7336,"Ġlever":7337,"Ġscen":7338,"Ġalthough":7339,"Ġfears":7340,"ĠLarry":7341,"ĠLucas":7342,"Ġchuck":7343,"Ġswap":7344,"ĠErin":7345,"ĠDavid":7346,"ushing":7347,"Ġtaped":7348,"Ġsnuggle":7349,"empt":7350,"Ġfocused":7351,"Ġbravest":7352,"ĠJodie":7353,"ÅĵBut":7354,"ÅĵNow":7355,"Ġconcer":7356,"Ġstopping":7357,"Ġunited":7358,"perture":7359,"Ġappears":7360,"Ġforests":7361,"Ġprinting":7362,"Ġswimmer":7363,"Ġshoots":7364,"Ġslower":7365,"Ġtables":7366,"Ġrelief":7367,"ĠKelly":7368,"Ġcandies":7369,"Ġunderstands":7370,"Ġtricked":7371,"Ġfights":7372,"Ġgrows":7373,"Ġquieter":7374,"otta":7375,"otten":7376,"Ġplanting":7377,"Ġbelieving":7378,"Ġbaths":7379,"Ġattempt":7380,"Ġpurpose":7381,"ĠwouldnÃ¢":7382,"Ġforgets":7383,"Ġcowb":7384,"Ġrespond":7385,"Ġhopeful":7386,"Ġblender":7387,"Ġbounces":7388,"Ġmysteries":7389,"scotch":7390,"Ġgrandson":7391,"Ġshrug":7392,"Ġserv":7393,"Stay":7394,"Still":7395,"ĠElle":7396,"Ġfootstep":7397,"Ġstretches":7398,"Ġwishing":7399,"Ġcrossing":7400,"Ġcrowns":7401,"Ġpassen":7402,"Ġvanilla":7403,"Ġpays":7404,"Ġcaterpillars":7405,"Ġrefuse":7406,"Ġtempt":7407,"Ġtunnels":7408,"Ġlibrarian":7409,"Ġreply":7410,"Ġencourag":7411,"Ġfilms":7412,"ĠBunBun":7413,"Ġcamping":7414,"ĠPatches":7415,"Ġdelivering":7416,"Ġcops":7417,"Ġhedgehog":7418,"ÅĵWhatÃ¢":7419,"Ġluckily":7420,"Ġseconds":7421,"Ġinsisting":7422,"Ġpresses":7423,"Ġlanguages":7424,"Ġdisagree":7425,"Ġdiscussed":7426,"Ġpurr":7427,"Ġpurrs":7428,"Ġlicking":7429,"Ġbrushing":7430,"Ġtraveled":7431,"Ġfirefly":7432,"Ġ10":7433,"Ġfamiliar":7434,"Ġwarnings":7435,"Ġmaterial":7436,"Ġnovels":7437,"rrr":7438,"Ġforgiving":7439,"Ġparticularly":7440,"Ġvideos":7441,"Ġdeserve":7442,"Ġtouches":7443,"Ġheadcrabs":7444,"Ġsquishy":7445,"Ġfifty":7446,"Ġcenter":7447,"Ġsank":7448,"Ġscampered":7449,"Ġscurrying":7450,"Ġtoddler":7451,"Ġhusband":7452,"Ġdamaged":7453,"Ġmesmer":7454,"Ġyelped":7455,"Ġfootsteps":7456,"Aunt":7457,"Danny":7458,"ES":7459,"Gotta":7460,"IT":7461,"Joy":7462,"Jeff":7463,"Jamie":7464,"Milly":7465,"Net":7466,"Oops":7467,"Sn":7468,"Santa":7469,"THE":7470,"Wh":7471,"Wake":7472,"Watch":7473,"boo":7474,"cent":7475,"coon":7476,"lake":7477,"lves":7478,"ms":7479,"mel":7480,"rig":7481,"zo":7482,"ĠQ":7483,"Ġtil":7484,"Ġaim":7485,"Ġaimed":7486,"Ġsill":7487,"Ġsens":7488,"eds":7489,"Ġtossed":7490,"iner":7491,"rew":7492,"rey":7493,"Ġwakes":7494,"Ġfaded":7495,"itude":7496,"Ġcert":7497,"Ġdot":7498,"Ġheight":7499,"Ġmir":7500,"Ġpuck":7501,"ĠTaking":7502,"Ġocc":7503,"ingu":7504,"ilver":7505,"ĠSatur":7506,"ĠSilver":7507,"ancy":7508,"Ġthir":7509,"ĠHoot":7510,"ĠHEC":7511,"ĠHopper":7512,"Ġrotten":7513,"Ġstall":7514,"Ġstool":7515,"Ġstern":7516,"Ġwithin":7517,"Ġyounger":7518,"adley":7519,"ĠthatÃ¢":7520,"stick":7521,"ounds":7522,"ĠMira":7523,"ĠMinty":7524,"Ġreb":7525,"Ġreapp":7526,"riends":7527,"Ġlocks":7528,"ĠAria":7529,"ĠAmanda":7530,"Ġspikes":7531,"Ġspices":7532,"umby":7533,"Ġhelpers":7534,"Ġcash":7535,"Ġmanners":7536,"ĠWelcome":7537,"Ġworst":7538,"Ġrancher":7539,"Ġcosy":7540,"Ġcopper":7541,"Ġcocoon":7542,"ĠLion":7543,"ĠLove":7544,"Ġflown":7545,"Ġchop":7546,"Ġcharge":7547,"Ġswitched":7548,"Ġgrabbing":7549,"Ġabilities":7550,"ĠFier":7551,"Ġwatering":7552,"Ġwatermel":7553,"Momo":7554,"Ġsmallest":7555,"ĠCity":7556,"Ġgardens":7557,"ÅĵThe":7558,"ÅĵHey":7559,"ÅĵMy":7560,"ĠPhil":7561,"Ġfinishing":7562,"LetÃ¢":7563,"Ġwinds":7564,"Ġcleaner":7565,"acle":7566,"ĠNell":7567,"Ġrains":7568,"Ġamused":7569,"ĠRavi":7570,"Ġrestored":7571,"Ġduckling":7572,"Ġcrops":7573,"ĠJaney":7574,"ship":7575,"shirt":7576,"Ġruining":7577,"Ġdreamt":7578,"Ġfills":7579,"Ġslowed":7580,"Ġcreativ":7581,"ĠKaren":7582,"osite":7583,"ĠJenna":7584,"Ġtalks":7585,"ugging":7586,"meal":7587,"Ġguards":7588,"Ġmints":7589,"Ġpotion":7590,"Ġdryer":7591,"Ġdespite":7592,"Ġpreschool":7593,"Ġlifts":7594,"Ġaction":7595,"ÅĵIf":7596,"Ġignoring":7597,"Ġhonked":7598,"Ġhumming":7599,"Ġfiles":7600,"Ġorganizing":7601,"Ġtests":7602,"Ġpleaded":7603,"Ġself":7604,"Ġprayers":7605,"Spike":7606,"ĠStar":7607,"ĠStill":7608,"Ġexamining":7609,"Ġpasses":7610,"Ġawoke":7611,"Ġseller":7612,"ĠNobody":7613,"Ġflags":7614,"Ġoatmeal":7615,"Ġwhispering":7616,"Ġexperi":7617,"Ġghosts":7618,"Ġsleigh":7619,"Ġsweaty":7620,"Ġdisturbing":7621,"Ġcomplained":7622,"Ġbracelets":7623,"Ġwiggly":7624,"Ġappreciated":7625,"ĠRobbie":7626,"Ġstruggle":7627,"Ġsuffered":7628,"Ġtwinkle":7629,"Ġinstantly":7630,"ĠVery":7631,"Ġfloats":7632,"ĠBozo":7633,"Ġstomachs":7634,"Ġspits":7635,"ĠBuzzie":7636,"Ġeighty":7637,"Ġwagons":7638,"Ġdetention":7639,"Ġchatted":7640,"ĠMaya":7641,"ĠFroggy":7642,"Ġtype":7643,"ĠOliver":7644,"Ġexpecting":7645,"ĠBirthday":7646,"Ġconvin":7647,"Ġcorrectly":7648,"Ġvideo":7649,"Ġtalented":7650,"Ġsurvive":7651,"Ġcalmed":7652,"Ġmatey":7653,"Ġmasterpiece":7654,"Ġconnected":7655,"Ġdefeated":7656,"Ġaliens":7657,"Ġsnowflake":7658,"Ġcustomer":7659,"Playtime":7660,"Surprise":7661,"Ġopposite":7662,"Adam":7663,"Ġechoed":7664,"Whee":7665,"immering":7666,"Ġseventy":7667,"Ġmarveled":7668,"Ġcongratulated":7669,"Ġtiptoed":7670,"ING":7671,"Ġninety":7672,"Ġnurses":7673,"Ġchuckled":7674,"ĠSaturday":7675,"Ġthirty":7676,"ĠHECU":7677,"ĠFierce":7678,"Ġwatermelon":7679,"Ġcreativity":7680,"',":7681,"Boo":7682,"Car":7683,"ED":7684,"Even":7685,"Get":7686,"Half":7687,"Jerry":7688,"Katie":7689,"Liz":7690,"Like":7691,"Lizzie":7692,"Mat":7693,"Miss":7694,"Michael":7695,"Ruby":7696,"Rosie":7697,"Since":7698,"Zero":7699,"aly":7700,"but":7701,"bum":7702,"bro":7703,"dies":7704,"driver":7705,"ebs":7706,"free":7707,"father":7708,"fire":7709,"gr":7710,"ik":7711,"ihil":7712,"ker":7713,"lings":7714,"lish":7715,"mates":7716,"over":7717,"pic":7718,"upt":7719,"wise":7720,"yler":7721,"Ġ9":7722,"Ġtar":7723,"Ġtiss":7724,"Ġtips":7725,"Ġsy":7726,"Ġbless":7727,"Ġbitten":7728,"its":7729,"Ġlent":7730,"Ġlush":7731,"Ġdarl":7732,"erms":7733,"Ġpoun":7734,"ĠTuna":7735,"ĠTigers":7736,"armer":7737,"Ġsav":7738,"ĠSc":7739,"ĠSir":7740,"ĠSun":7741,"ĠSplash":7742,"ĠSasha":7743,"anion":7744,"ances":7745,"orter":7746,"leiner":7747,"Ġhermit":7748,"ĠShelly":7749,"espite":7750,"ooking":7751,"Ġrather":7752,"Ġsty":7753,"Ġstain":7754,"Ġsteth":7755,"Ġstitches":7756,"adually":7757,"addie":7758,"Ġplain":7759,"sty":7760,"Ġupside":7761,"Ġwee":7762,"Ġmommies":7763,"Ġshin":7764,"ently":7765,"ended":7766,"lyx":7767,"Ġkittens":7768,"ĠMan":7769,"ĠMuff":7770,"ĠMason":7771,"alter":7772,"Ġass":7773,"Ġbodies":7774,"ica":7775,"Ġknots":7776,"Ġscutt":7777,"Ġalbum":7778,"Ġfeast":7779,"ĠWater":7780,"Ġsometime":7781,"Ġworn":7782,"âĤ¬,":7783,"ifi":7784,"ĠLuke":7785,"Ġflock":7786,"ĠElp":7787,"asion":7788,"Ġblob":7789,"Ġblast":7790,"usion":7791,"anth":7792,"Ġposit":7793,"bbey":7794,"ĠFifi":7795,"Ġintrig":7796,"Ġpeppers":7797,"Ġmoons":7798,"Ġtrough":7799,"Ġquilt":7800,"Ġenemy":7801,"Ġsnuck":7802,"Ġlongest":7803,"Ġbeast":7804,"ĠCable":7805,"Ġdonkey":7806,"Ġtearing":7807,"bee":7808,"ĠJosh":7809,"Ġcheers":7810,"Ġcheated":7811,"Ġglared":7812,"ĠPipp":7813,"ĠPingu":7814,"Whenever":7815,"Ġdoorway":7816,"Ġdoorbell":7817,"Ġwindy":7818,"Ġrealizes":7819,"Ġunfortunately":7820,"Ġunsure":7821,"Ġgreatest":7822,"Ġremembering":7823,"Ġdresser":7824,"Ġdiso":7825,"Ġsweetest":7826,"ĠDog":7827,"Ġcraft":7828,"Ġcracks":7829,"Ġfires":7830,"Ġpuff":7831,"Ġtasting":7832,"Ġthroughout":7833,"Ġpromises":7834,"Ġsteady":7835,"Ġcolder":7836,"Ġsets":7837,"Ġarmor":7838,"ĠKay":7839,"ĠKait":7840,"ĠKleiner":7841,"Ġcompanion":7842,"Ġhorror":7843,"Ġpolitely":7844,"Ġgratefully":7845,"Ġnaps":7846,"Ġheartbro":7847,"ĠOxy":7848,"Ġinvites":7849,"ĠThanks":7850,"ĠFloppy":7851,"unts":7852,"Ġbanged":7853,"Ġgrandfather":7854,"Ġexpress":7855,"Bobo":7856,"Ġstorms":7857,"Instead":7858,"ĠWithout":7859,"Ġcalmly":7860,"ĠChicky":7861,"Ġtrusts":7862,"Ġteams":7863,"Ġgenerosity":7864,"ĠBecky":7865,"illiam":7866,"Ġapologised":7867,"Ġglasses":7868,"ĠMarble":7869,"Ġleads":7870,"Ġsqueezing":7871,"Ġdesigns":7872,"Ġdesigner":7873,"Ġcuddles":7874,"Ġerase":7875,"years":7876,"ĠTrust":7877,"Ġunlike":7878,"Ġbullies":7879,"Ġhumans":7880,"Ġengineer":7881,"Ġcobwebs":7882,"Ġspeeding":7883,"Ġchalkboard":7884,"Ġsending":7885,"Ġshovels":7886,"Ġmugs":7887,"Ġunpacking":7888,"Ġbeeping":7889,"Ġobserving":7890,"Ġcompliment":7891,"Ġmagazines":7892,"Ġrepairman":7893,"Ġscrewdriver":7894,"Ġsprinkled":7895,"Chirp":7896,"Ġbreathed":7897,"Ġsurrendered":7898,"Ġrefreshing":7899,"Ġlending":7900,"Ġsubject":7901,"ĠChris":7902,"Ġvehicles":7903,"ĠPutu":7904,"ĠGranny":7905,"Ġpupils":7906,"Ġdetect":7907,"Ġhesitated":7908,"ĠFrog":7909,"Ġpeeled":7910,"Uncle":7911,"ĠDrumby":7912,"Ġnightmares":7913,"Tweety":7914,"ĠBirdy":7915,"Ġchooses":7916,"jamin":7917,"Ġflavor":7918,"Ġconsider":7919,"Julie":7920,"Ġearned":7921,"Ġrobber":7922,"Ġafford":7923,"Ġbehavior":7924,"ĠOwen":7925,"Ġscraped":7926,"Ġmunching":7927,"Ġbattle":7928,"True":7929,"ĠâĢĵ":7930,"ĠMelody":7931,"ĠOrangey":7932,"Ġdouble":7933,"Ġnibble":7934,"ĠPinchy":7935,"Ġlungs":7936,"Ġnearest":7937,"Ġcowboys":7938,"Ġshrugs":7939,"Ġencouraging":7940,"Ġmesmerized":7941,"Ġcertain":7942,"Ġrebuild":7943,"Ġcashier":7944,"Ġconvinced":7945,"iki":7946,"ihilanth":7947,"Ġtarget":7948,"Ġdarlings":7949,"Ġstethos":7950,"ĠMuffin":7951,"ĠPippa":7952,"ĠKaitlyn":7953,"Ġheartbroken":7954,"--":7955,"?!\"":7956,"Dear":7957,"Danger":7958,"Detention":7959,"EN":7960,"Each":7961,"Fred":7962,"Gu":7963,"May":7964,"Mira":7965,"OR":7966,"Ralph":7967,"Too":7968,"Tilly":7969,"Yummy":7970,"aut":7971,"bank":7972,"bird":7973,"eight":7974,"four":7975,"iel":7976,"lied":7977,"munk":7978,"no":7979,"nine":7980,"pan":7981,"ring":7982,"riting":7983,"six":7984,"two":7985,"Ġ4":7986,"Ġ5":7987,"Ġwig":7988,"nds":7989,"Ġbuddy":7990,"ino":7991,"Ġhoo":7992,"Ġhour":7993,"Ġfain":7994,"Ġcuc":7995,"Ġdump":7996,"Ġdem":7997,"erg":7998,"erbe":7999}