#version: 0.2
h e
Ġ t
Ġ a
Ġ s
Ġ w
n d
Ġt he
č Ċ
e d
Ġa nd
Ġt o
Ġ b
i n
Ġ h
r e
Ġw a
o u
Ġ f
i t
Ġ c
Ġ l
Ġ d
e r
Ġ he
Ġ m
Ġ p
Ġ T
Ġwa s
o m
O S
E OS
Ġ <
Ġ o
a y
a r
i s
in g
i l
Ġ g
i d
a t
Ġ n
ĠT he
e n
Ġs a
Ġh a
Ġ S
a n
i m
o r
o n
Ġ it
Ġt h
l l
Ġ H
l e
o t
e t
Ġhe r
i r
ĠH e
ĠS he
e s
ĠThe y
Ġ in
u t
v er
o w
c k
Ġ e
Ġ y
l d
Ġ u
o o
Ġsa id
i g
Ġ r
il y
Ġb e
a m
Ġs t
Ġ I
Ġ "
c e
k e
Ġs he
v e
p p
it h
Ġw ith
L ily
Ġo n
Ġy ou
r i
O n
k ed
Ġo f
n t
a d
Ġh is
Ġp l
Ġs o
ver y
Ġd ay
Ġth at
s t
Ġpl ay
Ġu p
Ġha d
Ġthe y
Ġ Lily
Ġw e
Ġf or
Ġ B
u n
T he
Ġm om
e l
ou ld
Ġl i
' s
m y
c h
Ġs h
Ġwa nt
Ġha pp
Ġn ot
en t
ou t
he r
Ġd o
it t
Ġw h
s e
om e
Ġb a
Ġ is
Ġ very
e nd
l y
ou nd
Ġ k
Ġ M
im e
ĠI t
h t
Ġn e
a l
Ġt ime
itt le
Ġ re
Ġhapp y
Ġb ig
Ġthe re
Ġs m
Ġl ittle
r y
Ġb ut
Ġa n
Ġsa w
r a
. "
ri end
Ġf riend
id e
Ġa s
u g
On e
a ke
! "
Ġwe re
' t
Ġl oo
o re
v ed
t er
Ġl o
Ġto o
Ġs e
On ce
a ll
Ġg o
Ġa re
Ġb o
e c
Ġh im
Ġwant ed
Ġthe m
ar d
ĠT im
il l
Ġ j
ir l
Ġ out
Ġa t
Ġthe ir
u r
Ġup on
Ġd id
Ġg irl
Ġ A
w ay
u l
Ġs p
i nd
Ġsm il
Ġc ould
he d
a in
Ġha ve
he n
r om
ar t
Ġe x
Ġw ent
Ġc an
h ing
ĠB en
Ġa r
ĠT om
f ul
ig ht
i c
Ġfriend s
oo d
u m
Ġk n
l p
Ġ J
on e
? "
Ġn am
Ġba ck
Y ou
Ġs ay
Ġf un
Ġhe lp
Ġa ll
ar k
Ġc l
Ġc a
Ġl e
Ġn o
Ġs c
el t
s ide
o p
Ġm an
Ġa l
i ck
Ġli ke
Ġto y
Ġsmil ed
Ġlo ved
Ġnam ed
Ġf elt
Ġ One
ou g
Ġs ome
Ġse e
om et
Ġloo ked
Ġas ked
am e
Ġm e
Ġf e
Ġb r
Ġ W
Ġr o
u re
Ġar ound
Ġb ir
Ġw ould
Ġf a
Ġbo y
g et
i ce
on g
s s
ĠTim my
Ġs omet
Ġwh at
Ġbir d
Ġst art
ad e
Ġa g
Ġw or
ing s
Ġa way
Ġr an
ow n
, "
Ġm ake
d d
Ġ You
ĠB ut
k ing
Ġt re
i e
ar ed
Ġsay s
Ġm ade
get her
ou d
Ġc ar
Ġc o
Ġsomet hing
Ã ¢
â Ĥ
âĤ ¬
Ġstart ed
i f
Ġo t
Ġto gether
Ġf rom
Ġl a
Ġp ark
Ġot her
Ġp ut
e p
Ġp r
a ck
oo k
it ed
Ġsa d
b le
e ll
Ġh ug
Ġag ain
ri ed
Ġ L
Ġne w
Ġex c
Ġwh o
Ġm u
a ch
Ġg ood
es t
Ġf l
Ġd ec
ar a
Ġh ome
Ġthe n
Ġli ked
q u
Ġc h
Ġf ound
n n
pp ed
Ġwa l
Ġw hen
h at
Ġplay ing
Ġs w
oug ht
Ġg et
u ck
Ġth ings
ou s
Ġ E
a s
g e
ĠM om
Ġb l
Ġ D
all y
id ed
Ġdo g
Ġg ot
Ġc ame
Ġexc ited
Ġdec ided
The y
Ġyou r
p l
is t
r o
ou se
u s
Ġe very
Ġt a
Ġsc ared
nn a
Ġon e
u st
an t
Ġth an
Ġd own
a x
Ġg ra
er s
Ġf ind
u e
Ġw ill
Ġca re
a ve
Ġa b
Ġp a
Ġbe c
ar n
Ġm y
Ġba ll
Ġd ad
Ġloo k
Ġfe el
Ġtoo k
Ġab out
ĠS am
c hed
u dd
Ġl ot
Ġ v
nd er
g ed
Ġ ke
Ġg r
n y
ou r
f e
way s
Ġdid n
Ġp o
es s
b b
is e
Ġout side
Ġla ug
Ġal ways
Ġle arn
Ġtoy s
Ġkn ow
Ġmom my
it e
Ġkn e
Ġm ore
Ġth ought
Ġ F
Ġtre e
Ġin t
Ġh o
Ġp re
en ed
ec i
Ġs l
Ġm a
or ry
Ġc at
Ġan y
u ll
i ve
Ġt ake
Ġo ld
T om
i a
Ġkne w
Ġsp eci
Ġspeci al
B ut
ĠM ax
Ġr un
in k
Ġs orry
Ġp e
is h
Ġsh ow
f ter
Ġm o
Ġh ow
ĠS ara
udd en
Ġe at
Ġmu ch
Ġt r
Ġha nd
at e
m a
Ġo r
Ġh ouse
Ġt ried
Ġint o
udden ly
Ġin side
Ġcl o
Ġo p
Ġwa ter
Ġ qu
Ġpr oud
Ġg ave
Ġt w
a ce
v en
an k
Ġs un
Ġto ld
Ġs k
ĠE very
t y
ĠA nna
Ġ en
Ġe ach
Ġth is
Ġhe ard
Ġp ick
Ġplay ed
Ġne ver
ĠW e
Ġcould n
um p
Ġwa t
or t
ot her
Ġhug ged
Ġro om
ot h
u se
Ġst r
i on
Ġo ver
Ġpre t
M om
Ġman y
Ġj ust
Ġs n
Ġn ice
Ġbo x
Ġ if
he re
Ġex pl
b y
Ġc om
g ry
et ter
a use
Ġsm all
i z
Ġt ry
d y
il e
ur t
v ing
Ġg re
in e
Ġof f
Ġl ong
Ġne ed
Ġbe ar
u c
Ġbec ause
k es
' m
Ġu nt
Ġsh a
Ġlearn ed
Ġbe a
e m
Ġj o
Ġunt il
ĠM ia
Ġfa st
H e
im al
Ġfl ow
Ġan imal
ad y
Ġf o
ur n
Ġd re
ĠA nd
s el
Ġlaug hed
ar s
Ġe nd
re nt
Ġu s
p t
v es
il d
Ġlo ve
Ġ im
oug h
b er
Ġb est
Ġbea ut
f t
ĠJ ack
Ġb etter
Ġ C
Ġb u
Ġd on
ur p
Ġr a
Ġk ind
Ġc all
Ġc le
in y
Ġthan ked
Ġf i
Y es
T h
Ġg ard
Ġgard en
ĠS o
Ġb y
Ġb ra
i ful
Ġbeaut iful
Ġt e
w n
ĠH er
Ġl oud
Ġl ist
Ġcare ful
Ġsk y
b e
Ġa d
Ġj ump
i es
c t
ĠJ o
Ġh urt
Ġw o
v ent
Ġe ven
Ġc he
sel f
Ġf am
Ġst ill
I t
Ġf le
ĠF rom
Ġwa y
Ġc ome
Ġlot s
Ġb ad
Ġst ay
Ġg l
Ġl et
Ġb oth
ec t
Ġh ard
he s
ĠThe n
Ġb ook
Ġu nder
Å ĵ
Ġanimal s
Ġclo s
Ġan gry
Ġc u
Ġco l
is hed
a se
n ing
Ġre m
ĠH is
i p
o ck
T im
oo l
k ay
Ġsh ould
Ġdo ll
Ġsa fe
Ġr ed
Ġbra ve
Ġwal ked
N o
Ġim p
Ġit s
a nd
Ġli ved
f ore
ig h
a p
x t
op le
re e
Ġfam ily
Ġ P
Ġsh iny
Ġf in
W hen
Ġp ic
Ġf ore
Ġ Ã¢
uc y
urp r
l ed
Ġc ry
Ġdo or
Ġst or
Ġpe ople
Ġfle w
Ġs urpr
Ġf ly
Ġtw o
Ġha s
ĠW hen
Ġsl ide
o on
Ġt urn
um my
dd ed
Ġno ise
Ġke pt
Ġcall ed
L et
Ġpret ty
is ed
Ġbe fore
Ġd an
g er
Ġw ind
Ġre al
Ġsha re
B en
Ġso on
an e
s o
Ġc re
Ġn ow
Ġal so
o b
Ġf r
Ġc on
Ġro ck
Ġ ide
Ġw r
Ġgo ing
h n
t ure
Ġe y
Ġop ened
ar y
il ly
Ġcle an
le s
Ġd ra
im b
Ġexpl ore
Ġke ep
Ġsmil e
Ġ G
t hing
Ġne xt
Ġgr ound
ay be
Ġst o
Ġcl imb
Ġide a
u ch
Ġcol or
Ġpick ed
is s
i ous
Ġno dded
a c
Ġu n
ĠD ad
T hat
Ġwh ile
Ġad vent
Ġth ink
Ġ N
o y
Ġd if
Ġb ed
Ġpic ture
âĤ¬ â
Ġbe ing
e et
Ġf ish
t h
Ġf ar
ĠL ucy
i ed
Ġtr uck
Ġflow ers
Ġg ive
Th ank
Ġlist en
Ġwa r
W hat
a k
Ġto w
Ġme an
Ġey es
f f
Ġwal king
Ġfeel ing
Ġth r
p er
j oy
Ġwal k
Ġo wn
Ġa pp
Ġf ood
Ġsh out
ir st
em ber
Ħ ¢
âĤ¬â Ħ¢
Ġd el
ĠS p
ic ed
Ġbr o
Ġwat ch
Ġwa it
Ġhand s
Ġdo es
t ed
Ġimp ort
Ġadvent ure
Ġsto pped
Ġs qu
Ġloo king
S he
Ġb re
Ġe ver
Ġfore st
Ġimport ant
Ġa fter
Ġdif fe
Ġgre at
Ġrem ember
ug ht
bb ed
c o
Ġne ar
ma z
Ġen joy
le ase
Ġa maz
Ġbl ue
Ġhe ad
Ġr ight
ll ow
Ġwo nder
A nna
Ġo kay
Ġas k
Ġbo at
Ġst ore
Ġqu ick
W e
ĠS uddenly
iz ed
at h
Ġh op
Ġbr ight
Ġt ra
Ġshow ed
Ġwat ched
Ġfa ce
Ġwor k
S ara
il a
Ġevery one
t ing
Ġd e
Ġs ound
Ġdiffe rent
d ay
an ge
Ġst ick
Ġv o
bb it
Ġnot iced
Ġfo llow
a ched
Ġn ight
ĠMom my
S uddenly
ĠS ue
Ġ our
Ġt ell
Ġdre ss
Ġstr ong
Ġw here
Ġra bbit
L ook
S o
Ġr ain
Ġd is
Ġa c
a ge
Ġre pl
Ġt al
is y
n g
Ġc ook
Ġbec ame
m ore
Ġp ull
Ġquick ly
Ġs ure
Ġu se
g an
Ġbe en
Ġany more
Ġbl ock
ĠSp ot
Ġpl ace
by e
Ġclos er
Ġop en
le ep
Ġgra bbed
Ġy ell
Ġcu ri
Ġbe l
Ġy e
Ġc ake
Ġk id
Ġvo ice
Ġon ly
Ġf irst
Ġch ild
Ġhe re
Ġ z
Ġse es
ou nt
ll y
Ġm or
Ġp ain
Ġrepl ied
Ġa m
st er
nd ma
ĠB ob
Ġm on
im es
Ġre ached
Ġwar m
Ġcuri ous
Ġgra ss
Ġle a
Ġsw eet
Ġma g
Ġ R
Ġfa v
Ġgood bye
Ġfor g
Ġh igh
Ġm um
ĠSara h
a ble
ir ed
ĠT h
Ġcar s
Ġb it
ri es
Ġsa nd
Ġth ree
er ed
Ġcon t
a isy
Ġfe ll
ĠD o
Ġbut ter
C an
it c
Ġd r
Ġre st
Ġfl o
Ġre ady
Ġbird s
Ġshout ed
H er
or n
Ġbe h
Ġc ra
Ġl ess
Ġhelp ed
Ġhapp ened
Ġfi re
Ġst op
ĠEvery one
Ġkid s
Ġs ing
Ġma king
J o
Ġjump ed
Ġb us
Ġha ving
un ny
Ġgl ad
b o
Ġd uck
ĠL et
Ġl ady
W ow
ig n
Ġy ummy
Ġso ft
A fter
in s
Ġat e
Ġfun ny
w here
a g
Ġh at
ĠT hat
Ġk itc
Ġpa rent
Ġkitc hen
Ġp er
Ġreal ized
Ġto p
Ġto uch
Ġm ouse
at her
Ġg ame
ĠA s
Ġc ut
Ġan other
Ġha ir
Ġpr in
Ġstor y
Ġfi x
Ġbr other
Ġcat ch
Ġc ried
' re
Ġho ld
Ġp u
Ġd one
Mom my
Ġth ing
Ġg i
k en
Ġsm ell
Ġus ed
Ġfav or
Ġcom ing
Ġdra w
Ġfavor ite
Ġwh y
Ġunder st
Ġwor ry
Ġta st
pp y
Ġthan k
Ġsw im
at er
Ġsh o
re l
z y
Ġbe gan
ull y
Ġless on
Ġm ess
Ġthr ough
Ġw ished
Ġl ight
Ġse en
Ġc r
Ġst re
Ġmag ic
i ver
ĠJ ane
Ġwor ld
ĠC an
Ġparent s
Ġp rom
Ġre ad
Ġpret end
Ġwa ved
s h
Ġt ired
Ġhim self
Ġblock s
Ġbeh ind
Ġhe ar
Ġp art
Ġpa per
Ġflow er
D on
Ġf ro
Ġpo nd
u it
Ġlaug h
Ġp us
Ġnam e
Ġdel ic
Ġr u
Ġlook s
Ġdo ing
Ġbutter f
Ġflo or
one y
f ully
i ent
Ġwind ow
a ir
Ġremember ed
o lly
re n
Ġwr ong
Ġtre es
A s
Ġdre am
S am
Ġba g
Ġd ro
ard s
Ġd ri
Ġf ill
Ġc ool
at ion
Tim my
Ġsw ing
Ġsp ot
Ġcl a
m er
Ġs leep
ed dy
d s
Ġ -
Ġli kes
Ġre ally
Ġ ice
" .
l f
Ġany thing
Ġhe ld
Ġst e
Ġs at
ĠD aisy
Ġper f
Ġho pped
Ġmo ve
ĠI n
Ġd in
ss ed
ĠJo hn
h y
Ġf ull
Ġb unny
Ġsurpr ised
ĠJo e
Ġd ark
Ġye ars
u ff
Ġb ow
Ġbook s
Ġb ug
Ġsurpr ise
ĠS ally
Ġ čĊ
ĠA fter
Ġsn ow
Ġfa ir
Ġco ld
Ġfin ished
Ġgre en
Ġsl ow
Ġyell ow
i ke
Ġt all
re ed
on s
Ġle ft
Ġrun ning
Ġfollow ed
Ġwe ar
Ġlo st
Ġfro g
Ġw ood
Ġh id
Ġta ble
Ġho le
en ce
as h
u ed
Ġe l
Ġhapp ily
Ġneed ed
Ġs et
Ġh ill
Ġenjoy ed
Ġbutterf ly
Ġcolor s
Jo hn
Ġre l
ĠM aybe
Ġel se
Ġar ri
as ure
Ġa ir
Ġh ot
Ġball oon
Ġcre at
Ġdelic ious
en s
Ġca st
Ġwor ked
Ġher self
Ġh un
H ell
Hell o
Ġsqu ir
Ġba by
ie ld
in ed
ĠThe re
Ġwant s
ĠTom my
Ġcare fully
The n
Ġm at
Ġd ir
Ġar m
Ġbu y
Ġp lease
Ġsquir rel
Ġ K
Ġg one
el y
Ġs ong
an ce
in ally
Ġca nd
c ess
Ġsc re
Ġsc ary
Ġarri ved
Ġy es
ĠL ila
Ġbro ken
Ġag reed
s p
Ġclo se
Ġunderst and
Ġa ble
Ġg ent
Ġbu ild
Ġchild ren
Ġlea ves
Ġm ight
Ġcont in
O K
Ġt ight
e y
ĠN ow
r ot
Ġj u
ro ss
Ġtry ing
Ġwonder ful
Ġforg ot
Ġt ri
Ġturn ed
a v
Ġf all
Ġstay ed
o s
Ġsp l
Ġpo in
Ġm ar
Ġfe w
Ġp ink
Ġwh ite
Ġcom p
ou p
a ught
Ġsmil es
o om
Ġro ll
Ġen ough
Ġpicture s
r ow
m an
Ġcook ies
Ġf ight
Ġfriend ly
Ġli on
Ġclimb ed
Ġsomet imes
' ll
e ep
Ġhun gry
Ġm et
Ġp i
Ġfill ed
Ġl ake
Ġcontin ued
n er
J ack
Ġwa ll
Ġgra ndma
Ġstr ange
Ġbre ak
Ġp en
Th is
Ġc ount
uck y
g on
l c
Ġr ace
ĠW hat
Ġget ting
c ed
Ġw et
Ġsome one
Ġcast le
c le
i ch
Ġm iss
Ġmor ning
Ġv is
Ġamaz ing
Ġw on
Ġbr ought
Ġma kes
ĠTh is
Ġlist ened
Ġm other
Ġbe ach
Ġask s
F rom
â Ģ
ĠJ en
Ġmu st
ro om
Ġthink s
Ġpull ed
Ġtre at
Ġfin ally
e e
l ing
Ġh or
d er
Ġrun s
ct or
A t
Ġta il
Ġpo l
Ġsp ark
Ġother s
Ġevery thing
Ġmon ster
or ing
ĠG ra
Ġmom ent
Ġamaz ed
e ar
Ġs it
Ġs illy
Ġperf ect
Ġwas n
Ġwor ried
Ġth re
Ġp at
Ġdin ner
a st
p e
Ġdoll s
Ġtal k
H is
Ġwood s
p h
Ġsh ar
ĠBen ny
Ġbut t
or m
at ed
i re
ow er
ĠB illy
Ġgr ow
Ġf ield
le ss
Ġpl an
ic y
r ed
Ġcl ot
av y
i et
Ġse ar
Ġbr an
Ġqu iet
e ver
Ġh ide
Ġr ide
am p
Ġjo y
Ġdan ger
Ġe le
Ġtow ards
Ġwa ited
Ġclot hes
Ġwe lc
Ġsn ack
Ġp et
Ġo w
ck et
Ġbl ank
Ġcre am
ck ed
am ed
ĠE m
Ġdad dy
p es
ot t
op e
Ġfly ing
am es
Ġal one
Ġla nd
ug g
g s
Ġli ving
Ġne igh
b ble
m e
Ġsa il
Ġk iss
Ġmu s
Ġblank et
m ing
Ġgr ate
Ġcand y
ĠT o
is es
Ġfr uit
am a
Ġle ave
Ġs ign
ec es
z z
Ġpi eces
a pp
Ġpa st
Ġfast er
Ġvis it
Ġneigh b
O h
ig g
O kay
Ġcl oud
Ġpl ant
Ġs ide
Ġst ar
un ch
Ġgrate ful
c re
s w
Ġsh ared
ain ed
Ġre ach
Ġan sw
Ġwor ds
Ġtre asure
Ġcry ing
Ġsa me
as ed
Ġde ep
M ax
Ġf ur
ĠJ im
Ġpain t
M aybe
a re
Ġpu ppy
Ġg u
Ġw in
Ġm oney
is ter
i pped
Ġdo ctor
Ġpr o
Ġsm art
ĠA my
Ġcu p
th y
Ġpart y
Ġe m
Ġbel ie
ke y
Ġbl ack
Ġmo st
o l
Ġm out
an g
Ġjo in
Ġmout h
Ġm in
Ġbr own
Ġch o
Ġhe avy
Ġprom ised
S ure
Ġs u
Ġb ar
us ed
Ġt eddy
Ġb ath
z e
Ġown er
Ġh it
Ġevery where
Ġslow ly
Ġdan ce
uff y
i x
or d
Ġn ap
Ġbig ger
Ġco ll
Ġs uch
Ġf ence
Ġp ie
Ġte ac
Ġclos ed
ĠDad dy
Ġmus ic
u ally
ĠM r
Ġfair y
Ġdanger ous
Ġeat ing
Ġhop ed
Ġcolor ful
Ġba s
Ġat t
ĠA ll
Ġbro ke
f ort
s et
Ġtow er
Ġmor al
Ġr iver
Ġthre w
m ed
Ġh ig
ch ool
Ġmagic al
Ġb ike
Ġhelp ing
Ġcar rot
Ġprin cess
Ġwelc ome
Ġteac her
Ġto day
pp ing
Ġfo x
e ared
k et
Ġdra gon
Ġbas ket
ph ant
Ġcla pped
Ġp ot
Ġy ard
Ġele phant
Ġb ott
Ġtw ins
it y
Ġp urp
Ġfeel s
Ġjo b
Ġac ross
Ġs chool
Ġst ars
Ġhig her
b r
Ġb ite
H i
i er
c hes
Ġbe e
Ġdis app
it ing
Ġhe art
Ġg if
et er
Ġsp r
Ġapp le
Ġsho es
h o
Ġto wn
Ġwith out
Ġsm o
Ġwould n
d e
Ġst uck
ount ain
Ġdro ve
Ġac c
Ġdir ty
Ġhor se
Ġpurp le
w ard
id ent
W hy
Ġb uck
us h
Ġp h
Ġlong er
Ġpus hed
Ġc e
Ġp ack
Ġw ise
Ġhe al
L ila
Ġwh ist
Ġfar mer
âĢ Ļ
Ġs oup
Ġs ister
Ġhug s
o g
Ġl ate
Ġbelie ve
ĠM olly
Ġse a
Ġstor ies
i ble
ve l
e ad
Ġst u
Ġca ught
Ġfor get
Ġste pped
Ġd ist
a ss
Ġshe ll
Ġwe ll
Ġhapp en
Ġno se
co l
Ġmon key
ra ct
Ġche ered
Ġsw ings
Ġdr ink
b s
c es
Ġw ings
Ġup set
Ġnot hing
Ġsh ook
Ġke y
Ġgent le
Ġsa ng
or row
Ġno ises
Ġbran ch
u ched
Ġa f
Ġs uddenly
Ġto uched
st ead
Ġthr ow
Ġju ice
Ġc our
is a
ĠJ ill
Ġpo cket
in ing
Ġpl ac
Ġst and
Ġyou ng
Ġwonder ed
Ġstre et
Ġbow l
Ġf ing
vent ually
Ġco at
m ent
Ġd ry
Ġal ong
Ġcut e
Ġtr ou
Ġacc ident
Ġg ames
ir t
ra id
Ġch air
Ġow l
Ġaf raid
Ġcour se
Ġw ish
or ed
Ġexpl ained
Ġfore ver
Ġbus y
c y
Ġturn s
Ġneighb or
F inally
Ġs ick
Ġj ar
Ġta kes
and y
Ġbel ong
f used
Ġp ers
Ġmo ved
ĠGra ndma
Ġc ou
a ur
ie ved
ion s
Ġdro pped
Ġbutt on
f ish
Ġ 3
itt ing
Ġta king
Ġ O
ou n
Ġtra in
Ġcr ay
Ġ es
Ġc ow
Ġb at
Ġin v
Ġsh op
Ġbr ing
Ġpie ce
Ġf ree
Ġc orn
bb y
Ġswim ming
y ard
Ġ ve
Ġl unch
Ġback yard
Ġbre ad
it ch
Ġl on
ĠIn side
Ġbuck et
A nd
Ġor ange
Ġrock s
Ġsing ing
Ġb en
Ġp ig
um b
Ġpe ace
Ġt iny
Ġm ix
Ġsha pes
ock ed
Ġn aught
Ġhold ing
Ġnaught y
Ġe g
Ġsw am
Ġlon ely
D o
Ġm ist
M ia
Ġexpl oring
ll o
Ġany one
ĠTh ank
Ġd es
Ġre sp
Ġba nd
bo ard
Ġprom ise
Ġrel ieved
itt en
Ġwo ke
Ġhop e
Ġcoll ect
Ġgif t
Ġp op
Ġj our
Ġsp id
Ġjour n
ad ow
e b
Ġm ad
Ġp ath
Ġg ather
Ġco ver
Ġadventure s
Ġday s
Ġsh ining
ĠF l
Ġwatch ing
Ġgi ves
Ġw ra
Ġk ick
Ġcom es
He y
Ġcle ver
a le
Ġsn ake
Ġsmell ed
Ġb le
Ġf it
Ġe ar
Ġr ound
p ed
Ġs itting
Ġput s
t o
Ġf an
Ġc ir
un g
Ġco in
Ġpre s
Ġcol our
o se
sh ine
Ġl ucky
Ġhe llo
Ġcra w
Ġdri ver
Ġpoin ted
Ġm il
Ġm ine
Ġj e
cre t
s y
w eet
Ġse cret
Ġcom fort
ĠG o
ble m
Ġpro blem
Ġon to
Ġk ing
Ġk ite
a il
Ġa nt
ĠM ary
Ġsound s
Ġb oun
ĠL isa
Ġma il
Tom my
Ġye ar
e k
ck s
Ġca ve
Ġco zy
ĠSo on
c er
Ġl ater
pp er
Ġre t
Ġsun shine
Ġshar p
g ged
Ġcar ry
th day
Ġn est
Ġlo ves
Ġgo es
Ġexc iting
ĠSam my
Ġlaug hing
ĠF inally
iz e
Ġa p
Ġp ar
Ġsu pp
Ġph one
ĠS omet
al m
Ġmy ster
Ġfar m
Ġtast y
Ġarm s
Ġpres ent
u nt
Ġp an
Ġp udd
id ge
Ġin stead
Ġli ft
Ġsh irt
Ġsp in
Ġqu est
Ġcreat ure
Ġansw er
Ġret urn
c ing
Ġg igg
Ġnear by
Ġspl as
ĠJim my
Ġt ries
Ġa ct
Ġne ck
Ġcook ie
Ġduck s
e re
s c
Ġh oney
or s
et h
Ġsnow man
Ġaccident ally
Ġb an
Ġm ed
Ġsa ck
Ġsp oon
Ġsee med
Ġben ch
Ġpr ot
Ġsun ny
iz z
ĠC ome
Ġw he
Ġim ag
Ġtal ked
Ġpat ient
b ow
Ġto m
ĠT V
Ġbir thday
Ġsl id
Ġz oom
Ġth ough
es e
Ġgra nd
Ġtrou ble
n ess
um ber
Ġapp les
Ġc ard
Ġli fe
Ġse at
Ġex p
Ġprot ect
Ġs uc
Ġl etter
Ġp ower
ĠN eep
Ġgi ant
Ġmin ut
Ġwhist le
O f
Ġ ent
ul ar
Ġbu bble
Ġmat ter
Ġm ark
Ġst ra
ur se
Ġsp o
Ġmo on
u b
el s
ul t
Ġsmil ing
Ġad m
aught er
ere st
al s
Ġche ese
Ġrain bow
B ob
E very
h nn
o ve
Ġb ought
Ġe as
Ġmil k
hnn y
G ood
Ġw om
Ġm ountain
Ġsa f
Ġli ve
Ġsp ent
Ġme et
Ġwr ite
Ġwom an
J ust
Ġc art
ĠT weet
Ġr ope
Ġtoo l
Ġro ad
Ġint erest
Ġtast ed
Ġspid er
C ome
Ġp ract
ch ing
Ġsh y
ĠEm ma
oo se
Ġas leep
Ġfe ather
Ġlove ly
Ġspot ted
Ġresp ect
Ġjourn ey
L ater
Ġ Z
bo x
Ġroll ed
Ġb ark
Ġcan n
M um
le t
Ġhug e
Ġmu d
Åĵ I
Ġstor m
Ġapp eared
Ġdir t
Ġban an
Ġsh r
Ġsc ar
Ġplac es
L ucy
Ġs er
Ġo ven
on t
Ġcreat ive
Ġfur ry
P lease
Ġche er
Ġdan ced
I n
Ġ ign
Ġh on
on es
Ġpa w
Ġstr ing
Ġz oo
Ġgent ly
Ġcou ch
S t
p a
Ġscre amed
M olly
Ġm ind
Ġr ad
Ġfa ces
Ġcloud s
Ġbar ked
Ġcann ot
ĠW ith
Ġro b
Ġv al
Ġfr ont
J im
t en
Ġin c
Ġla st
Ġtell s
Ġpers on
Ġl ay
Ġl ad
Ġd aughter
Ġsa ve
Ġhelp ful
Ġwho le
e en
l a
Ġp ool
le br
Ġwor m
Ġpu zz
Ġbuild ing
b ar
o ld
Ġp ile
Ġsh ore
Ġtri p
Ġheal thy
Ġcorn er
Ġinterest ing
Ġw ild
itt y
itt ens
Ġwh ich
ĠM ama
Ġpic n
Ġdel ight
Ġdis co
Ġpretend ed
Ġdri ve
Ġce lebr
ĠFl uffy
Ġc ri
ar ge
ell y
Ġwhen ever
Ġfight ing
Ġpicn ic
S oon
r ound
re ss
Ġpl ane
Ġst one
Ġshe ep
Ġbug s
Ġspl ash
Ġt un
Ġwa ve
er t
Ġte eth
Ġsand w
Ġsear ched
Ġcray ons
Ġlad der
s es
Ġth in
Ġch ased
ĠSomet imes
Ġh um
Ġl ine
Ġp ri
Ġsp e
Ġch ick
Ġhid ing
Ġsmo oth
Ġhe ars
Ġm ach
Ġm aybe
Ġk itten
ĠE ll
Ġfo ld
ĠH ow
The re
Ġfe et
Ġdec or
Ġpus h
Ġshar ing
col ate
Ġble w
Ġc oo
Ġo b
Ġr ing
Ġfin ish
Ġfix ed
Ġru de
Ġem bar
Ġcarrot s
ig hed
Ġgo at
Ġcon fused
Ġembar ra
Ġf il
Ġp in
Ġp ill
Ġforg ive
Ġpeace ful
Ġl arge
Ġfo ot
Ġwo lf
Ġrob ot
Ġte ach
ip e
Ġscre am
Ġfing er
Ġw ide
Ġc alm
Ġp our
Ġsa l
un k
Ġor gan
ĠEvery where
Ġbus h
Ġtreat s
D ad
Ġb one
ĠThe ir
Ġas h
ĠC h
Ġrem ind
Ġcho colate
d en
Ġt est
ow ed
b all
h ile
Ġd i
Ġg en
Ġe ventually
Ġgra b
d ge
Ġh ar
Ġg ate
Ġj elly
Ġwait ing
Ġprin ce
M y
m o
w or
Ġc her
Ġg un
ir r
Ġtast e
Ġ '
Ġp le
Ġst ood
ep end
Ġv ill
ĠEm ily
ĠJ ust
ĠJo hnny
Ġtal king
Ġmiss ed
Ġmyster ious
wor k
Ġw ore
re ad
Ġp izz
ĠM um
Ġre c
Ġme ant
Ġfe ar
if e
Ġwear ing
Ġhid den
Ġsong s
Ġpudd le
Ġmach ine
T o
Ġs ort
Ġn umber
ir d
Ġso l
air s
Ġfruit s
Ġem p
Ġtom orrow
g ly
Ġs ur
er a
Ġu gly
Ġbr ush
Ġemp ty
u p
Ġso ld
Ġfor ward
Ġcl oth
Ġno ds
Ġmist ake
Ġcomfort able
l ower
Ġt id
it al
ĠJ ake
our s
Ġho sp
ĠP lease
Ġpol ice
Ġbott le
Ġspr ay
Ġhosp ital
a ger
in ted
Ġsp read
ĠD on
Ġtr ust
Ġcle ar
Ġembarra ssed
Ġa v
er ry
Ġm ummy
Ġca ge
ĠW hy
ĠL e
Ġpick s
Ġgre w
Ġ On
Ġc ries
Ġo ce
Ġta pe
Ġde er
Ġstre t
Ġeg gs
Ġscar f
Ġoce an
g y
Ġs el
Ġshe lf
Ġpl ate
Ġlea f
' d
N ow
r ated
Ġs our
ĠT eddy
Ġcl own
Ġland ed
Ġplant s
Ġwa gged
Ġm ot
ot e
Ġpr ay
S p
u d
Ġc ro
ĠS ome
Ġe ager
Ġgather ed
Ġstra w
o inted
Ġwa ves
ĠS t
Ġli cked
Ġpo or
Ġunderst ood
Ġw is
ig er
Ġex am
Ġle m
Ġche w
Ġwalk s
Ġthank ful
Ġdisco ver
a f
Ġwa nder
Ġwas h
Ġcra b
Ġs ighed
Ġthe se
ĠB r
Ġdre w
Ġte a
ens ive
Ġdisapp ointed
Ġquest ions
Ġexp ensive
Ġtid y
u ce
Ġwh ale
Ġcar ried
Ġdr op
Ġmess y
Ġdin os
Ġsuc cess
Ġminut es
Ġeas y
Ġdinos aur
c il
o bby
Ġt ick
Ġw ire
Ġba ld
Ġball s
Ġgr oup
Ġmo v
Ġsnack s
Ġes c
Ġpill ow
Ġbe ll
Ġsh ip
Ġba l
Ġwor d
Ġyour s
Ġfr ust
ac he
Sara h
Ġpack ed
Ġsplas hed
Ġsel fish
Ġstraw ber
v ous
Ġd eter
Ġp ir
Ġme adow
Ġknow ing
Ġjump ing
Ġballoon s
mo st
Ġdeter m
B e
l ight
Ġn et
Ġha m
ot s
Ġkn ocked
Ġle g
Ġal most
St op
Ġpuzz le
Ġesc ap
M ama
Ġth ick
Ġbird ie
Ġta ught
Ġtr ue
Ġcla ss
Ġstand ing
Ġhon est
Ġash amed
Ġpizz a
Ġfrust rated
p ack
Ġb oring
Ġn er
Ġcl ap
Ġfl uffy
Ġdog s
Ġpen cil
J ane
S orry
a kes
Ġh orn
at ing
ke ep
itt er
Ġwh is
Ġpa ssed
Ġshow s
Ġmo d
ump y
Ġmean s
Ġdist ance
Ġc ross
Ġsa ved
Ġas king
as k
Ġbl ow
Ġkne e
Ġcr own
Ġner vous
keep er
l ice
n ed
Ġh ours
Ġg ara
Ġr id
Ġst ep
Ġon es
Ġre g
Ġsp end
get able
Ġpa ss
Ġclos et
Ġkiss ed
Ġve getable
Ġgara ge
on y
oo f
Ġwe ak
Ġlo ck
Ġyour self
Ġv an
Ġtw irl
Ġyell ed
ĠTo gether
Ġbubble s
in ess
Ġl it
Ġp ay
ĠM ittens
Ġme asure
if f
Ġte am
Ġsmell y
Ġgen er
Ġlo se
Ġle gs
Ġsc r
Ġpol ite
Ġspark ly
Ġbutt ons
h in
Ġf ig
ar l
at or
Ġon ce
art h
Ġget s
ol og
Ġspo il
Ġvill age
A re
d le
u al
Ġd est
Ġwe ird
Ġta ken
Ġoff ered
Ġbed room
bo dy
Ġsleep y
Ġtight ly
Ġreturn ed
e x
s ist
Ġst uff
Ġwr ote
Ġdeterm ined
g u
y ing
Ġt ent
Ġst ir
ĠB e
el p
al k
Ġgo ld
ill i
Ġfe ed
Ġgr ay
Ġrock et
Ġstre am
Ġgu ess
Ġbath room
Ġbott om
Ġap olog
Ġpar rot
Ġmed ic
Ġbanan a
S ally
a pped
oo p
ce pt
The ir
Ġj ung
ur ed
Ġsee k
Ġexc ite
Ġjo ke
Ġcont ent
ĠJen ny
Ġmedic ine
H elp
p le
p ill
Ġt ie
Ġg as
Ġher o
Ġre ward
Ġse ed
Ġfl ash
iz zy
Ġgl ass
Ġjung le
k in
re ady
Ġd ig
Ġhe l
Ġj ack
Ġv ase
Ġcall ing
Ġsweet ie
Ġcir c
Ġple ased
Ġto oth
Ġf is
er pill
Ġm irr
Ġst ones
ill ed
Ġco st
Ġch ange
ĠD ucky
Ġma p
Ġcat erpill
Ġfam ous
Ġmov ie
h ip
Ġs il
Ġl amp
Ġre f
Ġal ready
Ġbec ome
Ġte ars
Ġtruck s
Ġcover ed
Ġje w
Ġexcite ment
i ence
t s
Ġh ur
Ġm ic
Ġn ut
ĠA t
ul if
Ġwor king
z ed
Ġa w
Ġb urn
ĠI f
ĠB l
ra g
Ġho pping
eci ally
Ġqu een
Ġju icy
Jim my
Ġhar m
ĠLe o
Ġgener ous
b in
in a
Ġy og
Ġso ap
Ġsh ark
Ġho se
Ġmo ving
Ġbre ath
ĠK itty
Ġfeather s
Ġinc red
a ff
et s
ĠM ar
Ġrest aur
Ġrel ax
Ġmat ch
Ġmirr or
Ġrestaur ant
I f
id dle
an o
Ġnot ice
Ġca ulif
ie f
Ġdec ide
ĠE ven
Ġor d
sel ves
Ġdoes n
Ġdr ank
W here
p ecially
Ġm iddle
et e
Ġof ten
ĠM andy
Ġar row
Ġca bin
Ġsl ipped
Ġreal ised
Ġfr own
Ġdraw ing
Ġsho ot
Ġdream ed
Ġcomp ut
Ġes pecially
Ġsandw ich
Ġmot or
Ġlem on
g round
Ġt ummy
Ġb orrow
Ġwa nd
Ġse ll
Ġsp ace
op h
Ġbr idge
Ġro ar
Ġjo g
Ġmight y
ugg est
Ġpower ful
Sp ot
Ġincred ible
Ġ OK
Ġw ip
Ġn orm
Ġha ng
Ġst at
Ġmom s
Ġhurt s
Ġey e
Ġcolour ful
ĠBr own
c orn
i pper
Ġagain st
ĠE nd
Ġsk ipped
Ġbox es
Ġpain ting
Ġmet al
Ġdisapp eared
Ġfan cy
Ġneck l
Ġwhe el
illi ant
Ġcaulif lower
S ue
Ġ No
Ġt em
Ġs ight
Ġs uggest
Ġf ool
Ġc am
Ġp ant
at o
Ġbe et
Ġlo cked
Ġclean ed
Ġhat s
Ġpop corn
Ġcaterpill ar
W ho
o nd
in ation
Ġsc iss
Ġbr illiant
Ġch oose
Ġra re
Ġloud er
Ġdan cing
Ġsmo ke
Ġhappen ing
Ġgigg led
Ġsciss ors
W ell
Ġ ind
at es
ĠB a
Ġbo dy
Ġle ad
Ġro se
us hed
Ġsqu ee
Ġstick s
Ġansw ered
Ġwra pped
Ġtun n
Ġnorm al
im ed
ut h
ad o
Ġba ke
Ġsp icy
um e
Ġcl ay
Ġfl ag
ia ble
Ġbrother s
Ġcraw led
Ġspin ning
Ġa dd
Ġc ity
Ġo k
Ġo at
Ġplay ful
Ġbo ss
Ġro d
Ġgi ving
Ġrel iable
Ġbran ches
Ġwhis per
Ġcomput er
Ġfool ish
Ġs ug
Ġwa gon
Ġbo ard
Ġch ase
us ual
Ġun usual
Ġlight s
Ġsear ch
Ġtool s
f ic
l and
Ġt ank
Ġf our
Ġf ine
Ġf ather
om ed
Ġclo ck
Ġsha pe
co a
ĠK im
Ġwall s
Ġpri ze
Ġob ed
Ġbal ance
Ġbeet le
Ġf rag
Ġn urse
Ġe ars
ĠA nn
Ġsay ing
Ġco coa
qu e
udd y
Ġpe bble
Ġdif fic
Ġenjoy ing
Ġac cept
Ġru ined
Ġcir cle
Ġgrand pa
Ġfig ure
M e
M ummy
c ient
g es
h a
o ppy
Ġl ying
Ġd ust
ir p
ug h
Ġex t
Ġsc are
ĠL ittle
em o
Ġfav our
Ġfall s
Ġpoin ting
Ġpen gu
Ġdes ign
Ġham mer
Ġflash light
Ġjack et
Ġsug ar
Ġdiffic ult
H ow
f ast
y al
Ġb ored
er o
Ġm elt
at ely
ĠS us
Ġth irst
Ġth ief
Ġsh ake
al ous
Ġkn ight
ous es
Ġgr own
Ġstrong er
Ġperf orm
Ġbreak fast
Ġkick ed
he ad
Ġa dded
Ġf ountain
as ing
Ġthought ful
Ġpe e
Ġra ced
Ġfr ight
Ġlaugh s
Ġcomp et
Ġsail ed
Ġshell s
Ġcart oon
Ġvegetable s
Ġobed ient
Ġfrag ile
B illy
w ards
Ġt er
Ġc one
Ġc udd
il t
le x
Ġis land
Ġj am
ur ing
Ġhelp s
Ġnice ly
Ġread ing
Ġmar ble
ugg led
Ġpast ry
Ġfing ers
Ġwra p
Ġje alous
Ġcam era
Ġpant s
Ġfavour ite
a ged
d om
k n
u nd
Ġs uit
Ġto ugh
Ġh ouses
re ssed
er ly
Ġr at
st ri
Ġhapp iness
Ġlo yal
Ġex per
Ġbl oom
Ġgra ce
Ġlearn ing
Ġjo ined
Ġche st
Ġgl ow
Ġtow el
Ġdream s
Ġste al
Ġneckl ace
G ra
l ies
y m
Ġd izzy
Ġsa uce
an ged
ent ion
Ġan cient
ill ie
Ġfl ut
Ġexcited ly
Ġknow s
Ġen v
Ġway s
ĠP eter
Ġsqu ash
Ġinv ited
la imed
Ġsol ve
Ġsuccess ful
Ġescap e
Ġstat ue
Ġtunn el
Ġthirst y
Ġcompet it
Ġt iger
Ġm el
Ġp ump
Ġsa us
Ġexc laimed
Ġsw ord
Ġtr uth
Ġtw ig
Ġneed s
He re
Ġkind ness
Ġfi er
Ġimp ressed
Ġun kn
Ġdr um
Ġharm less
Ġ er
ĠB obby
ra ge
Ġno d
Ġla w
ĠF in
Ġproud ly
Ġche ap
Ġun cle
Ġtra p
Ġpast a
umb ers
Ġunkn own
J ill
y e
Ġb itter
Ġo stri
Ġha lf
ĠB ear
Ġle an
Ġman aged
ell a
Ġte le
Ġgl ue
Ġtell ing
ho st
Ġbelong ed
Ġcri cket
Ġchick en
Ġext ra
Ġfier ce
G o
i o
t i
Ġf ake
Ġy et
Ġr oof
Ġst age
Ġplay ground
Ġsh one
Ġsh adow
Ġno isy
Ġme as
Ġco ins
Ġch ar
Ġcu be
Ġcry st
ĠTo day
Ġeg g
p id
Ġ U
Ġ ed
ĠT r
ar ing
Ġg host
Ġcl um
Ġfind ing
Ġcare less
Ġgr umpy
Ġun l
co d
Ġhold s
Ġstu pid
Ġcro cod
Ġscr at
o c
Ġb arn
Ġb ull
re em
Ġp il
at ure
ld i
Ġr ich
Ġwe ek
Ġan x
ur ous
Ġar g
?" .
Ġsto ve
Ġadvent urous
Ġsound ed
Ġstop s
ag es
Ġcount ed
Ġcirc les
Ġter ri
Ġb ump
en ny
Ġshe l
Ġor ig
Ġtw ist
Ġen g
Ġfle x
ĠN emo
Ġcra ck
Ġhair y
Ġbat ter
Ġmail box
Ġjelly fish
Ġfright ened
Ġanx ious
N eep
a wn
c ou
c col
u z
u nder
Ġto ast
in es
ar i
ĠB uddy
ug ged
Ġboy s
Ġot ter
Ġfr idge
Ġboat s
Ġpain ted
ation s
ĠK ate
Ġlift ed
Ġspoil ed
Ġdest ro
Ġcrocod ile
ccol i
n a
r ay
Ġs le
Ġs ink
Ġd ough
er ries
Ġg ir
Ġn umbers
am ent
Ġwe al
Ġsp ell
Ġkn ife
Ġpre p
Ġshow ing
Ġsn iff
Ġjo lly
Ġkind s
Ġfle a
ac hes
Ġcho se
Ġval u
Ġhum an
ĠBl ue
Ġwip ed
Ġsuggest ed
Ġenv ious
Ġostri ch
Ġclum sy
e xt
i que
Ġw itch
Ġb erries
Ġp al
Ġth under
Ġst aff
Ġre fused
Ġus ing
ĠP ete
Ġun iver
Ġun ique
Ġbro ccoli
Ġfire work
Ġmiss ing
Ġspark led
umb led
Ġband age
Ġadm ired
Ġpour ed
Ġind epend
m b
n ament
Ġ icy
in al
Ġp ipe
is k
im i
Ġthem selves
Ġj ug
ic t
Ġro de
ell ig
ĠL ook
Ġmu ff
Ġta g
Ġint ellig
Ġmo der
Ġor der
Ġor nament
Ġbea k
Ġche ck
Ġhard er
Ġtow ers
cre am
eb ra
Ġboun ce
Ġmark et
Ġstrawber ry
Ġtem ple
Ġmel on
Ġorig inal
Ġflex ible
g est
r n
in ary
Ġh unt
Ġf re
is ion
Ġre ver
Ġbig gest
Ġsp un
Ġch anged
Ġsw itch
Ġjump s
ĠP a
Ġopen s
Ġpop ular
Ġremind ed
Ġcher ries
Ġboss y
Ġpal ace
Ġindepend ent
i v
Ġa unt
Ġp urse
at ter
ill a
Ġbu ilt
Ġbright ly
Ġed ge
Ġeng ine
Ġdestro y
Ġmoder n
b w
Ġwa ke
it her
an ger
Ġe ld
Ġco bw
Ġla b
Ġsk in
Ġshout s
Ġz ebra
Ġrest less
Jo e
Ġcomp ass
Ġrad io
Ġcelebr ate
Ġspe ed
Ġfear ful
Ġpir ate
Ġpee ked
Ġpump kin
Ġchar ming
f a
i bb
Ġt urt
Ġt imes
Ġa head
or y
Ġfor th
ie w
Ġla zy
Ġend ing
Ġsand box
âĢ ¦
Ġsupp ort
Ġslid es
Ġser ious
Ġcheer ful
Ġrec ord
Ġreg ular
Ġterri ble
Ġvalu able
A my
j ect
Ġn ail
or ant
Ġsh ocked
Ġsmall er
Åĵ Let
ip s
Ġlea ving
ĠR ex
Ġwindow s
Ġsold ier
Ġhel m
Ġpengu in
Ġweal thy
Ġcompass ion
p ers
Ġs on
Ġr ough
ĠB unny
Ġsh iver
Ġca ct
Ġv iew
Ġcat s
ars h
Ġloud ly
ĠWhen ever
ĠG ive
Ġbus hes
Ġdri ving
Ġmar ch
Ġmust ache
Ġcray on
Ġcri b
Ġorgan ized
a king
Ġf at
er y
Ġm ay
Ġp ony
Ġwas hed
ĠS n
Ġso fa
ĠA lex
op us
Ġch alk
ct opus
Ġdream ing
Ġsleep ing
Ġsear ching
Ġspr ing
cy cle
Ġsaf ely
ĠTweet ie
Ġign orant
Ġdelight ed
Ġcryst al
h ood
o ot
t ime
Ġs end
Ġc ur
Ġo ctopus
Ġg oose
Ġin se
Ġfor t
Ġli br
Ġnot e
Ġdo lp
Ġre p
Ġfriends hip
Ġsome where
Ġch ain
Ġgra bs
Ġpre ssed
Ġclean ing
Ġde ad
Ġcup board
ĠMr s
Ġplac ed
Ġcreature s
Ġdiscover ed
Ġfre sh
Ġturt le
Ġcact us
Ġto rn
Ġf urt
ar ry
ĠS h
Ġit self
Ġst umbled
ĠM y
!" .
ro be
Ġen cou
Ġsn e
Ġbeaut y
Ġbad ly
Ġfire man
Ġgi ven
Ġdelic ate
Ġbag s
Ġtri ck
Ġneighb our
Ġfil thy
Ġav oc
ĠSus ie
Ġcompetit ive
Ġeld erly
Ġfurt her
D aisy
Ġs ent
Ġb ri
Ġh oop
Ġha ll
an ny
ot o
ck ey
Ġlo g
Ġme m
Ġstart s
Ġgra pes
Ġho ckey
Ġen orm
Ġcre ate
Ġru bb
Ġpers ist
ĠEll ie
Ġfil m
Ġsort s
Ġtwirl ed
Ġjew el
Ġgrace ful
Ġenorm ous
O w
W hile
g ing
z ard
Ġw ing
Ġh ay
Ġst airs
ĠB un
ĠM ark
Ġsc ale
Ġmo le
Ġpick ing
Ġblue ber
Ġstick er
Ġstick ers
ĠR ose
Ġsho vel
Ġmar ry
Ġhor ses
ast ic
Ġpig e
Ġval ue
Ġord inary
ĠTr ue
Ġt en
Ġt ied
Ġm ug
Ġp ow
il ty
Ġg uit
Ġe arth
ĠJ ul
Ġdidn Ã¢
ĠF red
Ġtr unk
Ġhand le
Ġen vel
em s
Ġgu ilty
ord on
Ġcarry ing
Ġpract ice
ĠEll a
Ġcobw eb
Ġenvel ope
e f
h ouse
l oo
u be
u bby
Ġt ire
Ġh arsh
Ġc amp
ll ip
ĠHe re
Ġr ushed
Ġli zard
Ġj eep
Ġme al
ĠL ee
Ġch asing
Ġhand ed
Ġstr anger
ĠP at
Ġdel iver
Ġswing ing
Ġgu ard
ĠO r
Ġmix ed
Ġintellig ent
llip op
i pp
Ġt ube
Ġs ym
Ġg or
Ġy awn
ĠM imi
Ġloo p
Ġgo lf
ĠA lice
Ġnam es
Ġsc atter
Ġsee m
Ġpa le
bb orn
Ġho les
Ġany way
Ġtr ump
iz es
Ġun pack
Ġsqu are
Ġuse ful
Ġz ero
Ġmag n
bo l
Ġstu bborn
Ġimag ined
Ġdecor ate
Ġsal ad
Ġmotor cycle
Ġsym bol
Ġ ing
Ġm is
ĠM illie
ter n
Ġlo llipop
Ġsc old
as er
Ġany where
Ġpe ar
Ġsn uggled
Ġoff ice
Ġtra sh
Ġde af
Ġpull s
Ġprin t
Ġmess age
Ġpen ny
Ġgrow ing
Ġcou rage
Ġpract iced
Ġcoo king
Ġapolog ized
Ġyog urt
ĠBrown ie
Ġer aser
Ġinse ct
Ġpersist ent
Ġpige on
E m
a z
p ar
Ġto il
Ġh ook
Ġd ish
an ut
or able
Ġth ose
Ġu r
Ġst ri
Ġst ared
st airs
Ġse par
Ġch ance
Ġqu ite
Ġen er
Ġad orable
red ient
Ġbar ber
Ġstu dy
ĠGo d
Ġcoo ked
Ġgas ped
Ġsil ver
Ġcompassion ate
Ġing redient
R e
s hed
Ġc omet
Ġbe an
Ġso il
ht ub
op ard
Ġfl ame
Ġab ove
ĠEvery thing
Ġcouldn Ã¢
Ġtra vel
Ġdraw er
Ġcreat ed
ol a
Ġcoll ar
Ġce re
Ġbat htub
Ġpaw s
Ġguit ar
Ġtoil et
Ġs um
nd a
Ġl ow
Ġd ull
Ġd epend
Ġhapp ier
Ġkn ock
Ġcl ub
ĠW h
Ġv ine
Ġqu it
Åĵ It
Ben ny
Ġwar ned
Ġbutterf lies
Ġcow s
Ġlive ly
Ġspe ak
Ġorgan ize
Ġwis hes
Ġfis hing
Ġgor illa
g ust
o e
y ear
Ġthe ater
in ce
Ġc op
ir it
Ġr ibb
Ġbe ep
Ġsh ort
Ġne at
Ġre ce
Ġre ef
ĠJ erry
Ġle ash
Ġno sy
Ġal ert
ĠW hile
ĠYou r
Ġsad ly
Ġch ubby
as on
Ġpo st
Ġexpl ored
ĠC l
Ġtra ins
Ġdis gust
Ġdraw ings
Ġrid ing
Ġfrown ed
Ġsle pt
isk ers
Ġlibr ary
a id
c ut
e er
he t
nd pa
Ġd ug
Ġhe dge
Ġm ask
Ġsh ut
ĠM ummy
Ġj et
ic er
Ġsw an
Ġsk ill
ĠAnd y
Åĵ What
Ġtra ck
Ġper m
Ġroll ing
Ġpat tern
Ġcraw l
Ġgigg le
Ġspo ke
Ġrad ish
Ġwhisper ed
Ġpil ot
Ġshel ter
G ive
a ked
c om
y le
re t
Ġm ath
Ġn ature
im p
Ġli e
Ġsh ine
Ġre sist
Ġbo ots
Ġsp irit
Ġhelp less
Ġca pt
Ġcar p
ĠL illy
Ġsw e
Ġpe anut
Ġexpl ain
Ġgl oom
Ġnow here
ag het
Ġpi ano
Ġquest ion
Ġletter s
Ġadm ire
Ġsum mer
aghet ti
Y ay
i kes
n e
n ight
n oon
p ort
v ice
Ġl ed
Ġp ort
Ġit ch
Ġst ack
Ġdo ve
Ġsp ear
Ġle opard
Ġal ive
Ġta x
Ġfind s
Ġpe pper
Ġsk ull
uc t
Ġbu ry
Åĵ Yes
Ġimp ress
Ġafter noon
Ġz ip
Ġru bbed
Ġcount ing
Ġdist ant
Ġmonkey s
Ġpresent s
Ġstret ched
ĠMar ia
ÅĵLet Ã¢
Ġdolp hin
Ġtrump et
Ġdepend able
Ġcarp et
Ġt ask
Ġs udden
Ġo bs
Ġg um
ll a
Ġbe es
am ond
ĠB ill
ch air
Ġre ind
ur b
ĠA re
Ġsp illed
Ġsp aghetti
Ġar t
Ġme at
Ġla s
Ġqu ar
Ġsn ee
sel y
Ġgl ove
ap a
Ġhop ing
Ġcount ry
Ġpack age
Ġdist urb
Ġshop keeper
Ġear ly
Ġrespect ful
ĠU n
Ġgloom y
Ġtax i
Ġobs er
Ġreind eer
b led
g n
Ġb icy
Ġm en
ec ause
Ġsc oot
Ġclo sely
Ġstr uc
Ġsha king
Ġbu zz
Ġforg ave
Ġhair cut
Ġarm chair
Ġpro v
Ġatt ic
Ġatt ract
Ġgif ted
eb ook
Ġcolour s
Every one
Ġbanan as
Ġdi amond
Ġstir red
Ġcost ume
Ġrever se
Ġhelm et
Ġcere al
Ġstruc ture
Ġso ar
Ġhapp ens
Ġnot ebook
ic es
ic hes
You r
ĠW here
Ġcom pl
Ġra il
Ġpain ter
Ġset t
Ġmar ched
Ġbreak s
Ġblanket s
Ġpot ato
Ġbark ing
af fe
Ġstep s
arl ie
Ġseed s
Ġingredient s
c ome
w s
Ġs izes
it o
Ġc urt
Ġl id
er able
Ġr hin
ce let
ri c
Ġli p
Ġli ons
Ġre pe
Ġlo ad
Ġca ble
Ġro ared
Ġfa uc
qu ito
uck ed
Ġbra celet
ac es
Ġsqu e
Ġac orn
Ġthank s
Ġpus hes
Ġscre en
Ġph oto
Ġdes k
Ġthin king
Ġchick ens
Ġgir affe
Ġmis erable
Ġener gy
ĠWh iskers
Ġimpress ive
Ġcurt ain
Ġrhin o
B ye
H a
a it
c ase
Ġl ime
Ġl uck
Ġm ill
Ġp it
Ġe ither
Ġst om
ce ed
Ġpl astic
al ed
Ġre sc
Ġan g
Ġback pack
ro sc
Ġpa pers
Ġsn ap
Ġdoor s
âĤ¬â Ģ
Ġhead s
Ġbright er
ĠBob o
Ġpretend ing
os ed
Ġbelong s
Ġimag ination
Ġcard board
Ġhum ble
Ġlemon ade
uz zy
Ġdisgust ing
com fort
Ġattract ive
M ary
a ila
i est
s quito
Ġb et
Ġd ess
ir on
Ġst ation
Ġhad n
Ġli ves
Ġsh amp
Ġre co
Ġse co
bb ie
Ġmo squito
Ġsk ip
Ġjo kes
Ġche cked
Ġun comfort
Ġthre ad
Ġtreasure s
Ġmin t
Ġmin er
Ġtrou bled
Ġminut e
Ġsal t
Ġcher ry
Ġmic rosc
Ġarg ue
ĠPa ul
Ġbicy cle
Ġscoot er
aila ble
Ġdess ert
Ġshamp oo
Ġseco nd
Ġuncomfort able
Ġmicrosc ope
S ee
he art
Ġc ared
ar nt
et y
Ġr ot
Ġr ug
Ġwe ather
Ġfor k
ĠB u
Ġba se
Ġbo ot
ĠJ ames
Ġle arnt
ĠW ould
ss ible
Ġfl ies
Ġsw ung
ĠD ave
Ġpa ir
Ġfeel ings
Ġold er
Ġche ss
ect ed
Ġbel t
Ġcast les
Ġfall ing
ĠGra ce
ĠTo by
Ġwin ter
Ġsuc ceed
Ġinc l
Ġsandw iches
Ġsniff ed
Ġavoc ado
Ġfauc et
Ġreco gn
A lice
a zz
t ress
Ġf urn
it ure
Ġp or
Ġin k
Ġin sist
Ġy ach
ĠB et
ĠB ella
un a
Ġcan e
Ġkn ot
Ġno body
Ġag ree
Ġgr ill
Ġad vice
Ġwr iting
Ġhun g
Ġmat tress
Ġplan et
Ġsail ing
Ġsupp osed
Ġmed al
Ġbark s
Ġshr ink
Ġmod est
Ġhur ry
Ġsquee zed
Ġfurn iture
L ittle
c i
h us
u es
u by
Ġw igg
Ġb ur
Ġc ree
Ġc ush
om b
Ġo il
Ġon ion
Ġsh ield
Ġba king
Ġla wn
Ġch am
Ġbl ouse
Ġend ed
Ġra ven
Ġbook case
Ġimp ro
Ġcla pping
ĠJoe y
Ġcand le
Ġent hus
Ġpin ch
Ġav ailable
oph one
Ġhang ing
Ġoat s
und ry
Ġexper ience
Ġyach t
Ġcree k
c cer
o co
re ci
Ġwa ving
Ġc ards
Ġo l
Ġso ccer
Ġj unk
ĠW ill
Ġco al
Ġla undry
Ġpa id
Ġpa ge
Ġpre ss
Ġsha kes
Ġapp reci
Ġcra zy
Ġtri pped
Ġtri cks
Ġpoin t
Ġvis ited
Ġpar ade
Ġdi ary
Ġdrop s
ĠBa ldi
Ġunl ock
' .
i ves
m en
Ġa er
Ġc ord
Ġl ang
Ġd ent
oo ped
Ġst amp
Ġsh ade
op l
Ġbear s
ĠP olly
Ġtra il
Ġmag az
Ġspl it
Ġcomp let
Ġele v
Ġwelc omed
Ġatt ention
ĠZ oom
Ġign ored
Ġob ject
Ġmod el
ha ppy
reem an
Ġscold ed
Ġaer opl
Ġlang u
Ġs ke
Ġw iz
ed y
Ġg ear
at ient
ĠS ee
ll ie
Ġy ucky
Ġr ake
ĠA l
Ġsee ing
Ġfl apped
Ġsl ipper
Ġeat en
Ġsun g
Ġeven ing
Ġimp atient
Ġun happy
Ġhead ed
Ġsweet heart
Ġbeh ave
Ġtri ang
Ġspark ling
Ġfield s
Ġbar rel
Ġboun ced
Ġgold en
Ġhunt er
Ġelev ator
Ġslipper y
E ventually
r ophone
Ġs ize
in king
Ġm ild
ar oo
is on
el come
ch or
Ġis n
Ġk ang
Ġan chor
ra ged
Ġse al
Ġall owed
Ġpo le
Ġpo ke
Ġneed le
Ġshould n
ĠP apa
Ġlisten ing
Ġsho e
Ġlight ning
Ġpus hing
Ġju dge
Ġpol ish
Ġperfect ly
Ġcho ice
Ġsu per
Ġpudd les
Ġzoom ed
let on
Ġser ve
Dad dy
To gether
Ġpir ates
Ġmic rophone
Ġrelax ed
Ġflut e
Ġrep air
Ġmagn et
Ġskill s
Ġcham ber
Ġske leton
Ġkang aroo
I s
a b
Ġ iron
Ġa x
Ġb ikes
it es
an y
Ġin f
ĠE ventually
pl ay
Ġta p
ĠF reeman
Ġpe ek
Åĵ That
Ġshould er
xt ure
ree ze
ĠP ip
Ġcon f
Ġscre w
ĠGra ndpa
Ġwhist led
Ġthrow s
Ġking dom
Ġwhe els
ĠTweet y
Ġfold er
Ġcabin et
Ġwiz ard
D id
L isa
i ately
l ass
s ity
v ision
Ġb ent
Ġh ive
Ġh ipp
il o
Ġcar ing
Ġmu sh
Ġfl our
Ġpa nda
Ġsurpr ises
Ġclimb ing
Ġshout ing
Ġdis hes
Ġam b
ĠR o
Ġsoft ly
med iately
Ġbasket ball
Ġspr ink
Ġshr ugged
ĠCh irp
Ġstrawber ries
Ġsne ak
Ġrubb er
ĠJul ia
Ġsepar ate
Ġquar rel
Ġpor ch
omb ine
Ġax e
B ecause
e ff
Ġf ive
er c
Ġg ro
ĠM ike
Ġre aches
ĠL ola
pl ace
ĠC ombine
Ġte ar
Åĵ You
Ġdis ag
Ġbel ow
ĠR ed
Ġcr ane
Ġru les
ĠIn stead
cer os
Ġent ered
To day
ache l
Ġaccept ed
Ġlaw y
Ġlean ed
Ġtele vision
Ġrhino ceros
Ġsung lass
Ġsunglass es
J en
d ie
i pping
m m
s ed
Ġs ir
Ġto es
Ġp ad
Ġp un
Ġp ra
an ic
Ġu mb
ch anic
Ġex erc
Ġle ak
Ġme chanic
Ġqu ack
Ġstr ugg
em ent
ĠC oco
ct ion
Ġstick y
Ġdress ed
Ġrain ing
Ġdis play
Ġrest ore
Ġpu p
Ġsmell s
Ġcool er
Ġpat ch
Ġpet als
Ġthrow ing
Ġsur f
up s
Ġblow ing
Ġsaus ages
Ġpow der
Ġcapt ain
Ġlas er
Ġcush ion
Ġdent ist
Ġaeropl ane
Ġamb ul
Ġumb re
C h
M andy
w een
Ġs uff
Ġs ix
Ġw ine
Ġb in
Ġg a
an na
Ġy ield
Ġr ul
Ġk ay
ht er
ro d
Ġv et
Ġint rod
Ġpe ach
Ġmo ves
Ġtr ay
Ġroom s
Ġsn ail
ĠP oppy
ĠR uby
Ġfire place
Ġru b
ren ce
Ġspark le
Ġve nd
Ġcraw ling
Ġant s
Ġstra ight
Ġsaf ety
Ġstuff ed
Ġnut s
Ġmeas ured
Ġmuff in
Ġresc ue
Ġbet ween
Ġmush room
Ġlawy er
Ġambul ance
M an
W ait
m end
n ie
r on
Ġ ig
Ġb other
Ġm ister
om mend
Ġg em
Ġsa ving
or ies
Ġr ow
Ġst yle
Ġfa ctor
Ġstart ing
Ġwor se
Ġwor th
Ġv est
Ġpo ked
Ġlaug hter
Ġtw ink
Ġbra in
Ġhurt ing
ĠP e
ĠN ut
ĠN ext
ĠSp ike
Ġdis c
Ġbooks he
Ġmat ches
Ġcand les
Ġbuild ings
ang es
Ġpig s
Ġmist akes
Ġsplas hing
Ġtom ato
Ġent er
Ġrec ommend
Ġvan ished
oph ie
ĠBa by
Ġsaus age
Ġtorn ado
Ġswe ater
Ġminer al
Ġumbre lla
Ġrul er
Ġig loo
Ġfactor y
c ast
c akes
g en
Ġt ug
Ġd igg
ĠHe lp
Ġin st
Ġplay er
Ġba k
Ġkn elt
Ġpr un
Ġmu le
Ġpa ges
Ġcom b
Ġim mediately
ct ly
Ġdra in
Ġdel ay
Ġfollow s
Ġspot s
Ġpoin ts
Ġwall et
Ġatt ach
Ġmix er
Ġcollect ing
Ġimag ine
Ġcelebr ated
Ġeager ly
Ġburn ed
Ġuniver sity
Ġbri ck
Ġmen u
Ġmagaz ine
Ġtriang le
Ġdigg ing
l ier
Ġt ur
Ġt ub
Ġw ipe
in ked
re nder
Ġf ought
is ing
Ġn avy
st ic
ĠM iss
Ġse w
Ġj azz
if orm
Ġpo ison
ia stic
Ġbu ried
led ge
Ġun iform
Ġde ar
Ġdress es
Ġsand cast
Ġcra sh
Ġair port
Ġatt ached
Ġelephant s
Ġneighbor hood
Ġinv ite
Ġcollect ed
Ġpan ic
Ġshr imp
la ud
Ġscream s
Ġwis dom
Ġreg ret
Ġmelt ed
Ġcudd led
Ġmeas uring
Ġbatter y
ict ion
Ġencou raged
Ġmem ories
ĠCl ara
Ġenthus iastic
Ġgro cer
Ġdisc u
Ġbookshe lf
r s
t e
Ġwa gs
il ing
Ġher s
ĠI s
Ġup stairs
all ey
ĠW ho
âĤ¬ .
ĠL una
ĠMom o
Ġv alley
Ġknow ledge
Ġshow er
Ġra ft
Ġche ek
Ġrem ove
Ġapp laud
Ġbre at
Ġcla ws
lc ano
Ġkiss es
Ġmyster y
Ġstret ch
Ġcro ssed
Ġspend ing
Ġyog a
Ġflut ter
ĠUn cle
Ġcompl ain
Ġang el
Ġlangu age
Ġhipp o
Ġkay ak
iction ary
B a
W ill
i ved
i ers
r in
r ight
r iger
Ġs ince
Ġf ile
Ġd ictionary
Ġp ist
Ġp alm
om es
Ġo as
ĠS andy
ĠI Ã¢
Ġwe ep
Ġsh ot
se um
Ġre ve
Ġgo al
Ġkn ob
Ġmu seum
Ġbl inked
Ġpo em
ĠF r
Ġra ise
Ġfr ame
Ġclimb s
Ġamaz ement
Ġvo lcano
Ġair pl
Ġblack board
Ġbath robe
Ġfoot ball
Ġsold iers
Ġspray ed
Ġdinosaur s
Ġfis her
Ġref riger
Ġyawn ed
Ġribb on
Ġtur key
Ġpist ol
Ġoas is
Ġrefriger ator
N ot
a w
w as
Ġt ucked
Ġs omed
Ġto re
Ġp ur
Ġg ain
id es
Ġso ck
Ġsc ore
Ġput ting
Ġch irp
Ġgr in
Ġoff er
iss ion
Thank s
Ġdiffe rence
ng th
Ġz ipper
Ġstre ngth
Ġsail or
Ġap art
ĠCh arlie
Ġsur render
Ġref re
Ġjew els
Ġshoot ing
Ġcartoon s
Gra ndma
ĠSn ow
Ġdish was
Ġperm ission
Ġsomed ay
Ġdishwas her
m omet
r momet
x y
Ġthe rmomet
Ġh ut
Ġo ak
Ġy arn
un ately
Ġsp aces
ic ing
Ġca p
op s
Ġpr ide
ĠE ach
ĠE arth
bb led
Ġkne el
Ġor anges
Ġgre edy
Ġoff icer
Ġcre pt
Ġkeep ing
ĠG ordon
Ġapp ro
Ġhop es
Ġpull ing
Ġcr unch
Ġhill s
Ġhot el
Ġunderstand ing
os ie
Ġcount er
Ġplan es
Ġdisapp ear
Ġstu d
Ġseat s
Ġwander ed
ĠAnn ie
Ġprep are
âĤ¬âĢ ľ
Ġinf ant
. .
N ext
W elcome
g gy
n ey
Ġ V
Ġb ones
Ġb reeze
Ġd ire
Ġg ained
Ġit Ã¢
ĠH ave
The se
Ġk itty
Ġre qu
Ġgirl s
ĠJ eff
Ġhelp er
Ġman age
Ġpa used
Ġpo pped
Ġop era
Ġfast est
Ġdon Ã¢
Ġcu b
Ġapp ear
Ġrabbit s
Ġfrog s
Ġforgot ten
Ġfall en
Ġmar ried
Ġbelie ved
Ġhit s
Ġce iling
Ġjourn al
Ġble ed
Ġsaf ari
Ġpri ce
Ġsur round
Ġaw e
ari an
Ġuniver se
Ġcur led
Ġpra ised
A ll
O k
Y uck
f ied
Ġl end
Ġd ive
Ġd aisy
Ġd are
Ġp ies
Ġwas te
Ġo y
Ġit ems
Ġin ch
Ġr ush
Ġbe g
Ġbe at
Ġshe et
Ġso ared
Ġwe igh
Ġli ck
ic op
Ġbr us
Ġbl ood
ĠD an
Ġgra pe
Ġpo ssible
ma nd
Ġsun set
Ġdan cer
ĠR achel
Ġflo at
Ġcr ow
Ġste am
Ġsit s
Ġquiet ly
Ġsu b
Ġspid ers
Ġear lier
Ġboun cing
ĠSomet hing
In side
Ġhel icop
Ġtele ph
Em ma
Re ady
Ġpattern s
Ġcomplet e
ĠNut ty
Ġcrunch y
Ġhelicop ter
b ers
c age
e or
u zy
w k
Ġ x
Ġs im
Ġw ife
Ġb ul
re en
Ġwa ff
Ġha wk
Ġsp ade
Ġbird cage
Ġla id
uck ily
ĠF o
Ġsk irt
Ġte xture
ĠSp ark
Ġtra ve
Jo hnny
Ġperf ume
os ity
Ġmiss ile
app ing
Ġcup s
Ġcoat s
Ġbat he
Ġinv est
Ġpan cakes
Ġmountain s
Ġmeet ing
Ġtun a
Ġtick et
Ġclass room
Ġguess ed
Ġsquee ze
Ġbump ed
Ġmuff ins
Ġblueber ry
Ġrece ived
Ġvend or
Ġthermomet er
Ġspaces hip
M mm
W ith
b or
d o
i an
n ger
o ey
w alk
Ġto ng
ar m
en ry
im ney
am ie
Ġst ro
ĠB o
her o
Ġre s
Ġca se
Ġpr op
ĠL ike
Ġnew s
Ġch imney
as p
ant a
Ġlot ion
Ġtr op
Ġqu iz
Ġstr ang
Ġsn apped
Ġgl owed
Ġbrave ly
ĠP am
ĠG ood
Ġstore keeper
Ġfollow ing
Ġcra shed
Ġfire f
Ġsquirrel s
Ġmar ching
Ġgrow led
Ġpaint s
Ġnap kin
Ġwhe at
Ġpatient ly
Ġign ore
Ġhar bor
Ġtrust ed
Ġchew ed
Ġburn ing
Ġblueber ries
Ġur ge
Ġbuzz ing
Ġincl ud
Ġsuper hero
Ġstrugg ling
anna h
Ġairpl ane
Ġfisher man
Ġrequ est
Ġoy ster
Ġteleph one
eor ge
Ġstrang ers
J enny
c ious
l ow
s it
s ing
Ġa ch
Ġh omes
it ies
Ġl umber
Ġm ama
is hes
Ġg ust
ĠH arry
Ġr ice
Ġst ing
Ġst able
ur ch
Ġch urch
Ġdog gy
em ember
Ġrem ain
Ġpu pp
Ġside walk
Ġadm ir
reem ent
iv al
Ġdestroy ed
Ġinsist ed
Ġimpro ve
Ġsuff er
Ġbul b
! '
B un
a h
a ctly
o ved
u ke
u ly
Ġa ut
Ġf ed
Ġd ried
Ġp ed
id ay
at ch
ĠS ophie
Ġth umb
le y
Ġbe amed
Ġbe gged
Ġshe d
Ġon wards
Ġplay s
Ġli cks
ind y
Ġsc ooped
Ġme ow
Ġv ac
Ġpre cious
ish ment
Ġeat s
Ġtr ade
Ġsun f
ĠJo y
Åĵ No
Ġun ite
Ġbed s
Ġwar ning
Ġown ers
Ġour s
Ġz ipped
Ġdr inking
Ġtall er
Ġdeep er
Ġdoctor s
ĠO llie
Ġap ron
Ġexam ine
Ġdest ination
Ġtwig s
Ġscrat ched
Ġscatter ed
Ġstom ach
Ġappreci ate
ĠChirp y
Ġappro ached
Ġinvest ig
Ġres ult
Ġtrop hy
' ve
W ould
d robe
Ġ 1
Ġs i
Ġw ool
ed d
Ġl ugg
is hing
Ġin cre
Ġe ff
Ġr hy
Ġpl ates
Ġso re
Ġwh ip
Ġsp it
Ġal arm
Ġbr ings
ĠL iz
Ġdec ision
Ġv i
Ġop er
Ġwat ches
Ġcom f
Ġgre y
em bers
ĠC ar
Ġbra nd
Ġfam il
Ġrem embers
Ġshould ers
ĠP andy
Ġwar drobe
Ġde mand
ng el
Ġsat is
Ġbow ed
bble s
fort unately
Ġheart s
Ġchair s
Ġinv it
Ġsupp ly
Ġpuzz les
Ġdecor ations
Ġpin ched
irr ing
Ġescap ed
Ġord ered
ÅĵIt Ã¢
Ġprov ide
Ġsett led
Ġlip s
ĠBu zz
Ġsprink les
Ġdiscu ss
Ġgrin ned
Ġtong ue
Ġlugg age
G ordon
M or
S h
Y e
i um
l iday
z or
Ġb es
ĠS unny
Ġe ight
Ġst ad
Ġyou th
ent y
Ġse ason
Ġex actly
Ġcl iff
Ġal right
Ġtree house
Ġho liday
Ġpre vent
Ġra ised
Ġra zor
be y
Ġlet ting
Ġthr illed
Ġrain ed
Ġprin ter
Ġsign s
ol ine
Ġdisco very
Ġpray ed
Ġbal an
ĠBe fore
Ġscrat ch
ĠSh aring
Ġbase ball
ĠBet sy
Ġol ives
Ġinvestig ate
Ġcomf y
Ġstad ium
O uch
Y um
e ed
e ath
s on
u el
Ġs ip
Ġwa g
Ġd ied
Ġp ine
ĠT ina
Ġwas hing
ĠS uzy
im ent
et ch
Ġbe nd
ĠM ilo
Ġsp ort
Ġkn own
Ġmake up
Ġsw amp
ant ly
ink y
Ġcall s
Ġhard ly
ap e
Ġturn ing
Ġcre ation
th m
ĠR osie
Ġbit es
Ġcont ro
Ġflo ating
Ġfix ing
Ġswim s
Ġsho pping
Sam my
Ġcomp le
ugg les
Ġben eath
Ġmail man
Ġeas ily
ĠZ oe
Ġhon k
Ġworm s
Be fore
Ġhur ried
Ġfirework s
Ġobser ve
Ġrepe at
ab el
Ba ldi
ĠFr eddy
Ġrefre shed
Ġsim ple
Ġsunf lower
Ġrhy thm
A l
u de
Ġw re
Ġb erry
Ġm all
ĠS m
st ers
ĠM at
Ġse as
ĠA ngel
Ġex it
um ble
Ġran g
ĠD anny
Ġmy self
Ġv room
Ġpe aches
Ġtr uly
Ġra cing
Ġte asp
ect ure
Ġunder ne
ĠP enny
Ġturn ip
Ġreal ize
Ġtra pped
Ġflo ated
Ġpet s
Ġbee f
Ġact ually
Ġteach ing
Ġremind er
Ġtick le
Ġhorn s
Ġglow ing
Ġcrack ers
Ġprep ared
Ġneighbour hood
Ġbean s
ĠPe ople
Ġaut om
Ġeff ort
Ġcomple ted
Ġteasp oon
Ġunderne ath
C l
D r
O r
a les
g o
h ic
l ay
m ble
x c
Ġt ugged
Ġw id
Ġw est
Ġb unch
Ġf ut
Ġf est
Ġl ecture
le e
Ġr ise
Ġst irring
Ġhapp iest
ĠIt s
ter day
Ġare a
Ġout do
Ġtheir s
Ġsc ur
Ġme owed
Ġfa sc
dd y
Ġtre mble
Ġpo ppy
Ġsl ip
Ġma ss
Ġpe ered
Ġad ult
Ġche f
Ġwarm th
Ġcont est
ĠLet Ã¢
Ġmoment s
Ġgrow l
Ġland sc
Ġansw ers
Ġwhist ling
Ġfree ze
Ġve il
Ġpract icing
ĠZ oey
Ġfold ed
ĠCh r
Ġgun s
ĠSt op
Ġpillow s
Ġclap s
Ġsucceed ed
Ġdisag reed
Ġoper ation
Ġinvit ation
Ġbes ide
Ġautom ob
Ġfut ure
Ġfasc in
Ġlandsc ape
K ate
R o
v et
Ġb ill
in arian
Ġd uring
ĠT ony
ir a
Ġr ings
Ġr ipped
Ġst itch
ht ray
al ph
Ġas htray
Ġro ot
Ġtre mb
Ġbl ink
ĠD id
Ġv eter
Ġwater ed
Ġsn akes
Ġfo g
ĠC at
Ġra g
Ġwr itten
ff ic
Ġwait s
Ġtra ffic
Ġwork s
Ġyell ing
Ġz ig
Ġcatch ing
Ġpart s
Ġste el
Ġplan ets
Ġmouth s
Ġacc om
Ġneighbor s
Ġbring ing
Ġve hic
Ġproblem s
izz ie
Ġser ved
Ġgen ie
Ġclear ing
und ay
Ġsteal ing
ĠSn uggles
Ġbri cks
Ġbleed ing
Ġsatis fied
Mor al
Ġcontro l
Ġoutdo ors
Ġveter inarian
A nn
F irst
M ark
P eter
r ise
Ġs igh
Ġh ate
Ġc ell
Ġl ines
Ġp itch
ĠS unday
or ds
Ġher bs
Ġe qu
ad ed
ad ly
Ġwant ing
Ġwere n
all en
Ġle ather
Ġag reement
Ġch allen
Ġv ict
Ġsun rise
Ġim age
Ġte ase
Ġlet s
ĠP ut
Ġide as
Ġkeep s
ĠG r
Ġwar n
Ġfood s
Ġmon sters
Ġcont ain
Ġste ak
Ġland s
Ġbott les
Ġexam ined
Ġlem ons
Ġapolog ize
Ġpebble s
Ġdust y
Gra ce
uz ie
Ġlab el
ĠFred die
Em ily
Ġstri pes
Re ally
Ġpup il
Ġsandcast le
Ġbrus hes
Ġsi ren
Ġaccom pl
J ake
L e
M ar
a ster
c ers
z en
z ag
nd ar
Ġm itten
Ġp out
en ces
Ġha nger
ĠS anta
le ndar
Ġher b
Ġso aring
Ġwe ap
Ġj ail
ĠA n
um es
ĠJ amie
Ġall ig
Ġca lendar
Ġsad ness
ĠL ou
Ġv ent
Ġsl ice
ĠEvery day
Ġstr ings
Ġbu dge
Åĵ Thank
Ġbre aking
Ġrepl ace
Ġcuri osity
Ġhat ed
ater i
Ġwood en
ĠK ing
Ġspark les
Ġplant ed
Ġgu y
Ġwin ning
Ġfree z
Ġpar ked
Ġprotect ed
Ġmark ers
Ġrad ishes
Ġsol ved
Ġsil ence
Ġrece ive
Ġpeanut s
Ġsnee zed
Ġdisturb ed
ĠRo ver
Ġgrocer y
Ġreve aled
Ġchirp ing
Ġvac ation
ĠSm ith
Ġfest ival
Ġautomob ile
Ġzig zag
T eddy
b ig
c c
f fe
k y
n joy
u ri
Ġto e
Ġl ined
Ġd et
Ġhe at
Ġhe sit
Ġm ateri
en se
es a
Ġso aked
ĠB inky
ent s
Ġba re
ĠM esa
Ġlo ving
um bs
ĠJ ess
Ġno vel
Ġsc ient
Ġro ses
Ġfa sh
ĠL ater
Ġch at
Ġch ore
Ġdown stairs
Ġsl ed
Ġstr uck
Ġstr uggled
Ġover joy
Ġgl itter
Ġrem ained
ĠG eorge
Ġtow els
Ġwait er
Ġtra cks
Ġsing er
Ġfro zen
Ġdri ft
Ġset ting
Ġcontin ue
Ġcomp any
Ġkick ing
Ġslid ing
Ġdecor ated
Ġpolice man
Ġtwirl ing
Ġweek s
Ġur ged
Ġsnee ze
Ġpotato es
Ġrecogn ized
Ġrecogn ize
ues day
Ġbur row
Ġexerc ise
Ġga zed
Ġfiref ight
edd ing
Ġbill board
ffe e
Ġfash ion
Ġoverjoy ed
B obby
c les
c ope
g ers
u ry
w o
w orm
Ġs way
Ġb ang
Ġf etch
Ġc or
ĠT uesday
om as
Ġo bey
Ġn one
Ġn icer
Ġe mer
ig i
Ġli ed
ĠM ay
ĠIt Ã¢
Ġsp ill
ĠJ ay
Ġca kes
Ġbr id
Ġran ger
Ġco ffee
as hed
ĠF ro
ĠF irst
Ġany time
Ġpe el
ock y
ĠN ina
Ġown ed
ĠR es
Ġtast es
Ġmiss ion
Ġwasn Ã¢
Ġbucket s
Ġdes ert
Ġboun cy
Ġzoom ing
ÅĵI Ã¢
Ġzoo keeper
ĠSome one
Ġcost umes
Ġarg ued
Ġshiver ing
Ġsne aked
Ġsque aled
ÅĵThat Ã¢
Ġintrod uce
Ġbreat he
ĠSnow y
Ġinch worm
Ġcrow d
Ye ah
Ġwre ck
Ġfascin ated
Ġallig ator
big ail
Ġscient ist
L uckily
M illie
b ug
e ve
k ins
l er
l en
s hing
u x
Ġ X
he ll
Ġt ut
Ġw ow
Ġw edding
Ġl ux
om ing
Ġn ation
ĠH enry
ir ped
ĠB uzzy
ĠM aisy
!" ,
Ġgo als
ĠJ an
Ġall ow
Ġcl ick
Ġmu ddy
Ġch irped
as es
ist en
Ġma ze
Ġsun light
Ġpret ti
Ġwo nd
Åĵ Don
Ġdan cers
Ġkeep er
ĠN ot
ag ers
av i
Ġpat ience
Ġpast ries
ol in
Ġbuck le
Ġdrink s
Ġresp ons
Ġact iv
Ġcelebr ating
ĠHow ever
Ġvill agers
Ġpray er
Ġhur ric
Ġunl ocked
Ġmem ory
loo king
Ġribb ons
Ġsett le
Ġpad d
Ġquack ed
Ġtwink ling
Ġinst r
Ġbak ery
xy gen
Ġsurround ed
Ġbeg in
Ġmass age
Ġguy s
Ġbrid ges
Ġpretti est
Ġhurric ane
A h
R un
U n
b ies
c us
g ie
r r
Ġ vel
Ġt y
Ġt im
Ġwa ist
Ġm ittens
Ġg ym
Ġg lee
at y
ĠS uzie
Ġe v
Ġr ust
Ġso ak
ĠB ye
Ġli qu
se ek
Ġba bies
ĠM illy
Ġloo se
Ġse c
Ġse ven
Ġca ut
Ġsc oop
ick y
ĠW ally
Ġnew sp
ĠD r
Ġgr ant
ma re
ĠC indy
Åĵ Hello
Åĵ Why
ap er
Ġsmile y
Ġwonder ing
Ġnight mare
Ġforg i
Ġbeh a
ag gie
Ġper ched
Ġste ep
Ġmil es
Ġsupp lies
Ġgigg ling
Ġgrand d
Ġexp ected
Ġmot ion
Ġpass ing
Ġexper iment
Ġtwist ed
Ġpow ers
Ġsymbol s
ĠBet ty
Ġprun e
Ġregret ted
Ġsub way
ĠFo llow
Ġfamil ies
Ġweap on
Ġbare ly
Ġlux ury
Ġvel vet
Ġliqu id
Ġnewsp aper
" ,
E xc
O N
S ome
T E
y ond
Ġt ide
Ġb ank
Ġf art
Ġf uel
at ie
ĠH oppy
ĠH annah
ck y
Ġe vent
oo ly
Ġbe yond
Ġwe b
ĠM any
ic ular
Ġca use
Ġwhat ever
Ġstart led
Ġwor ries
Ġch ases
Ġsw ords
Ġgot ten
Ġv ines
Ġsk ipping
ĠC ra
Ġkind ly
Ġby e
ct ions
Åĵ We
ip ment
ĠP ink
ĠP rin
Ġwr ites
Ġwhere ver
Ġsweet ies
ĠR a
Ġfire men
Ġlady bug
Ġlight er
Ġpart icular
Ġru in
Ġarri ve
ĠO l
Ġcover s
Ġmed als
Ġexp ect
Good bye
Ġcheer ing
Ġsort ing
Ġstret ching
Ġrid es
Ġfig ured
Ġsight s
ĠSus an
Ġshadow s
Ġshel ves
Ġgir aff
Ġearth qu
Ġitch y
Ġprov ided
Ha ppy
Ġsurf ace
Ġdire ction
Ġpupp et
Ġadmir ing
Ġequ ipment
Ġvict ory
Ġchore s
Ġwond ers
Ġcaut ious
. '
E E
J ames
P a
R emember
T weet
a el
h il
i b
m as
n ers
n ies
u zz
y ou
Ġ Once
Ġs ings
it ched
Ġd ip
Ġo xygen
ay s
Ġth ro
es ome
Ġst are
Ġhis sed
Ġso cks
ĠB ir
ĠB ig
ĠB ee
Ġsh ock
Ġne ct
al f
ĠA d
Ġag o
Ġran ch
Ġco nd
ĠE njoy
ist mas
us ing
Ġevery day
Ġv owed
Ġpo king
Ġcat ches
Ġpe ck
Ġjo king
ĠC arl
Ġgl o
Åĵ Oh
Ġbel ts
ĠR alph
ĠJohn son
Ġroll s
ich ael
Ġpol ished
Ġsit u
Ġaccident s
Ġgift s
Ġgather ing
Ġmark er
Ġeas ier
Ġsaf er
Ġtun e
Ġpray ing
Ġtick ets
Ġvan ish
ĠBe ing
ĠBl ack
Ġsell ing
Ġcudd le
Ġornament s
Ġshiver ed
Ġencou rage
Ġload ed
Ġacorn s
Ġwaff le
ĠBo bbie
ĠChr istmas
Ġvent ured
ÅĵDon Ã¢
Ġgiraff es
Pa ul
Ġthro at
Ġnect ar
B l
F l
H arry
L ife
Q u
S us
b ric
c her
m other
o h
p ected
Ġ Y
he st
Ġto ur
re es
it ely
Ġd ipped
Ġm ention
ĠT ed
ĠT illy
at ul
Ġbe ard
Ġpl enty
Ġwe ars
Ġbo om
Ġman e
Ġbr ushed
Ġfa bric
ie ve
ĠL izzie
Ġch oo
Ġch ips
ĠF or
Ġsl apped
Ġtw in
iz ing
Ġcon v
Ġdra gged
Ġsto le
Ġbro om
Ġhands ome
Ġstick ing
Ġcra bs
After wards
Ġtouch ing
Ġcut s
Ġfro ze
Ġgrow ling
Ġpast el
Ġvisit ing
Ġriver s
br ush
Ġcollect ion
Ġcomfort ed
Ġsplas hes
Ġent r
Ġring ing
Ġpour ing
Ġspray ing
ĠLe ave
Ġwander ing
Ġcirc us
Ġaw esome
ĠAnn e
Ġinsect s
Ġsque ak
ĠBu bbles
Ġincl ude
Ġwigg le
Ġwigg led
Ġol ive
Ġconf ident
Ġintrod uc
Ġprun es
Ġkneel ed
Ġstud ied
Ġtrave ll
Ġinclud ed
Ġseas hell
Ġvehic le
Ġcor re
Ġearthqu ake
D ave
F or
L ola
P ete
R ose
c ip
e ars
i very
j am
l oe
n es
Ġt i
Ġs ense
ed nes
Ġf ir
Ġf reed
Ġc ough
ĠS orry
im y
Ġit em
ĠH a
ig ers
Ġbe lly
Ġst air
ri age
Ġwe ighed
el ery
Ġre lease
ic s
lp h
ĠJ ax
Ġfa il
Ġfl ap
Ġfl ames
Ġevery body
Ġv ide
Ġsl ap
Ġpe ars
Ġra ces
Th ose
Ġrock ed
ĠG igi
Ġcolor ed
Ġun f
Ġun ex
th ank
Ġimport ance
Ġtal ent
ĠR ocky
Ġrest ed
bo at
Ġprin ted
Ġdri ves
Ġste er
Ġrel uct
Ġmat ching
Ġyes terday
Ġsu itc
Ġmusic ian
Ġatt ack
Ġkey s
Ġsecret s
Ġmark s
Ġtrip s
ball s
Ġpizz as
Ġsur v
Ġchew ing
Ġnet work
Ġjog ging
Ġpengu ins
Ġcudd ly
Ġpil es
Ġrubb ing
Ġstudy ing
ĠAl ways
Ch arlie
Ġbak er
Ġfreez er
uri ous
Ġfirefight ers
Ġtut or
Ġinstr uct
Ġfart her
ednes day
Ġfir m
Ġunex pected
B ad
F ine
K itty
M r
i ar
o ed
o ssible
y an
z ing
Ġw ound
re at
Ġf ara
Ġc elery
Ġl imes
er n
Ġg ems
ĠS leep
an ne
ut ion
ig ning
Ġr umble
am b
Ġst ung
ad os
Ġwe ight
se qu
ĠA bigail
Ġex ist
ic orn
Ġno on
Ġno ses
op es
ĠW ooly
ĠW ednesday
Ġfa ced
Ġla p
Ġhug ging
Ġgood night
Ġfl ood
Ġfl av
Ġdec ides
ist ance
ust ed
ant ha
Ġlearn s
Ġsl am
Ġus ual
Åĵ This
Ġrem ote
Ġimp ossible
ap ed
Ġdra g
Ġun icorn
th ough
Ġvo ices
Ġcra cked
Jo ey
Ġprin ts
Ġcr umbs
Ġpretend s
Ġsear ches
Ġmus cle
Ġmus cles
Ġprincess es
Ġpocket s
Ġcelebr ation
Ġdiscover ing
Ġwire s
Ġwhis pers
Ġseek er
Ġref le
Ġaw ake
Ġborrow ed
Ġlead er
Ġlead ing
Ġmelt ing
Ġperform ance
Ġrecord ed
Ġtrick y
Ġavoc ados
Ġsneak y
Ġtomato es
Ġapplaud ed
Ġpur red
Ġprop erly
ĠMat t
ĠAngel a
Le o
Ġemer gen
Ġactiv ities
Ġbeha ved
ĠRa bbit
Ġentr ance
cip al
Ġsuitc ase
Ġfara way
A T
A lex
S omet
c ra
f it
f all
p ite
v a
Ġa ud
Ġw ink
Ġto night
Ġb umpy
in t
Ġc al
Ġd a
Ġd ared
Ġd ots
Ġm ate
ĠT ara
ar b
at ched
ĠThe se
ĠS w
ĠS ure
on i
Ġth orn
Ġe ast
Ġr isk
Ġbe am
am my
ad es
Ġba ked
ĠM abel
Ġare n
Ġout fit
ĠA lly
ul u
Ġex ha
Ġback wards
ick ed
Ġsw ooped
Ġsl imy
Ġgre et
Ġte les
Ġte ased
ĠJo anne
Åĵ Can
Ġclos es
Ġcon s
Ġcon es
ĠG et
th s
Ġlisten s
per ed
Ġdel ivery
Ġde al
Ġbel oved
Ġsweet s
ĠTh omas
Ġrest ing
Ġsing le
Ġpart ies
Ġmat ched
âĢ Ķ
Ġpat ted
ĠEm my
Ġpack ing
Ġheal ed
ĠO ut
And y
Ġdes er
Ġact ed
Ġspoon s
ĠZ ero
Ġscream ing
Ġmov ies
Ġblow s
Ġscr u
Ġsil ent
How ever
Ġbump s
ĠPa w
Ġzebra s
Ġnail s
Ġhelm ets
Ġcur ly
ĠJul ie
Ġsquare s
Ġcountry side
Ġobser ved
Ġcurtain s
âĤ¬âĢ Ŀ
Ġga ze
Ġflutter ed
ĠSpark y
ĠSpark le
Ġach ieved
Ġvi olin
ĠCar oline
Ġscur ried
Ġtremb ling
Ġaccompl ishment
Ġpout ed
Ġrespons ible
Ġev il
ĠPrin cipal
ĠHa ppy
Ġreluct antly
sequ ences
Ġexha usted
Ġteles cope
B r
B ella
M rs
R E
U h
e an
o lph
t ier
Ġ 2
Ġs ides
Ġw ins
ou ch
Ġd am
Ġd ie
Ġhe n
Ġm erry
id o
at ur
ĠS adly
Ġr opes
Ġst em
st ep
ĠB y
ĠB eth
ĠB reen
Ġk ites
ĠM aggie
Ġre le
Ġsp ike
Ġro ots
Ġfa ct
Ġhome work
ĠD uke
ess ie
bb ing
Ġma ster
Ġpret tier
Ġsn atched
Ġstay s
Åĵ Wow
Ġrem oved
Ġcon n
Ġcon sequences
ĠG reen
ac y
Ġwork er
Ġde fe
Ġopen ing
Ġsees aw
Ġdraw s
Ġdark ness
Ġhid er
Ġmar ked
Ġmar riage
ott on
ugg le
Ġneighb ours
Ġreach ing
ang ing
Ġcho ices
Ġpot s
oun ce
Ġspoon ful
Ġent ire
Ġroad s
Ġrespect ed
Ġscar ing
Ġfold ing
Ġdecor ating
ud olph
ĠSt eve
Ġmod els
Ġwip es
Ġwrap s
Ġbloom ed
Ġbloom ing
Ġcompetit ion
Ġscrat ches
Ġknock s
Ġperm it
imp ly
uct or
Ġpun ishment
Ġped al
Cl ara
Ġgrandd aughter
Exc use
Ġcond uctor
Ġglo ves
Ġsitu ation
Ġintroduc ed
Ġinstruct ions
Somet imes
E lla
E llie
F in
J ul
T ime
r atul
z es
Ġt ang
Ġa is
Ġs imply
Ġto uc
Ġb ars
Ġf uzzy
Ġc ous
Ġm ice
ĠT iny
ĠT wo
at ive
Ġn uzz
en ing
on nie
ll en
Ġin sp
Ġe arn
Ġr ip
Ġpl ucked
st ing
Ġfor m
ide y
Ġgo bbled
Ġgirl Ã¢
Ġcan Ã¢
Ġar gu
Ġsc ored
Ġsc ales
Ġal i
Ġro bb
ong ratul
Ġbird house
ĠL izzy
Ġfl apping
Ġch ip
Ġch os
as m
arn ey
Ġpo ster
Ġkne es
Ġhow ever
Ġtw ice
Ġsha ped
rent s
Ġgl ued
Åĵ Do
Ġdoll house
ĠP lay
Ġcre ations
Ġwr ink
Ġhead cra
Ġde f
ĠR oo
ĠTh ose
ĠDo lly
Ġfro sting
Ġru bs
ĠK eep
Ġpol ishing
Ġplan ned
Ġjoy ful
Ġsail boat
Ġpaint ings
Ġgu est
ment s
Ġshop s
Ġwra pping
Ġkick s
Ġshirt s
Ġrainbow s
Ġval ued
Ġdecor ation
Ġembarra ss
Ġpass port
Ġreward ed
Ġadd ing
Ġpee king
Ġotter s
Ġhall way
Ġsepar ated
Ġshort s
Ġrepe ated
Ġstamp s
Ġpun ished
Ġrecommend ed
Ġsandcast les
Ġdire ctions
Ġwaff les
low ly
Ġach ieve
Ġbalan cing
Ġchallen ge
ĠGr umpy
Ġhesit ant
Ġmateri als
ĠRes istance
Ġcautious ly
Fl uffy
Sus ie
Ġemergen cy
Ġaud ience
ĠSw eep
Ġrele ased
Ġargu ing
Ġchos en
A n
E C
H E
P olly
V ery
a ren
b ur
c uit
l o
m ies
p ing
he w
Ġt ip
Ġa ff
Ġb un
Ġb ully
Ġwa dd
Ġf ant
Ġc ust
Ġd en
ĠT oto
is cuit
id er
Ġn anny
Ġsa dd
an a
Ġth ird
Ġyou Ã¢
Ġplay ers
ĠB er
ĠB oo
ĠB onnie
un ched
Ġsh own
Ġsh ined
Ġlo sing
ur ry
ĠA unt
Ġback ed
Ġca pe
op sy
Ġfa ult
Ġyour selves
Ġwater fall
iz on
ĠC ara
Ġbra very
Ġwo bb
Ġunder ground
Åĵ Mommy
Ġreal ity
Ġrock ing
Ġdra wn
ac ed
Ġsqu ish
Ġhead ing
Ġwarm er
ĠR udolph
itc hes
Ġbeh avi
Ġcut ting
Ġhear ing
Ġfill ing
Ġbow s
Ġsnow f
Ġsnow balls
Ġcreat ing
Ġhor izon
Ġthre at
Ġsail ors
Ġpast els
Ġstar ing
Ġwin ked
Ġwin ner
Ġph ot
Ġheal th
og o
Ġbowl s
ĠO w
Ġinv iting
Ġcolour ed
Ġact ions
Ġgrand mother
Ġprotect ing
Ġscar ves
Ġspe aking
Ġsal ty
Ġdi ved
Ġple asure
Ġsol ution
ĠSt ella
Ġtick led
Ġham bur
Ġpencil s
Ġhero es
Ġknight s
Ġgrace fully
Gra ndpa
Ġdrum s
Ġseem s
Ġunpack ed
Ġlas ers
Ġcomplet ely
Ġweep ing
Ġreve al
.. .
Ġstro ked
low ers
Ġincre ase
Sh h
Ġbalan ced
Ġsec ure
ĠCra bby
Ġmention ed
Ġfail ed
Ġdam age
Ġais le
Ġbun nies
Ġfant astic
Ġcust om
B y
D uring
D ays
L illy
M ittens
P lay
R ex
S urpr
V E
b ell
d a
e my
r or
t ory
Ġ Okay
he y
Ġf if
it ion
Ġc ent
Ġl ily
Ġd ar
Ġm op
Ġo pp
Ġg on
Ġg arb
Ġn ibb
Ġsa n
ĠH op
Ġe ag
Ġon ions
Ġhis tory
Ġso aking
Ġwh ales
ly n
Ġk illed
ĠM on
Ġan n
Ġcan s
Ġar r
ĠJ u
?" ,
Ġsc ra
Ġsome body
Ġme als
ĠW igg
Ġag rees
ĠL a
Ġsw all
Ġsw eep
pl ash
Ġpa use
Ġbec oming
ĠSam antha
Ġpe cked
Ġpe arl
Ġcom m
Ġunt ie
Ġus es
Ġus ually
Ġbad ge
Ġstay ing
Åĵ Look
Åĵ Come
Ġfin s
oy s
ĠSp idey
co at
Ġrain coat
Ġyell s
Ġmon ths
ĠR emember
ĠR yan
ag ull
Ġread s
Ġsnow men
Ġhid es
Ġtable t
Ġbuy ing
ĠK atie
Ġpoin ty
Ġmiss es
Ġwon Ã¢
Ġplan ning
Ġmix ing
Ġpath s
Ġmatter s
Ġinterest ed
Ġrob in
Ġmach ines
Ġdi ving
Ġrec ipe
To by
Ġbell s
Ġarrow s
Ġroar ing
Ġind eed
Ġadd ress
que ak
Ġgrandpa rents
Ġdesign ed
Ġmarble s
Ġlean ing
Ġtwist y
Ġrever sed
Ġrecord ing
Ġmagn ets
Ġstri p
Ġspeak s
Ġmask s
Ġart work
Ġfork s
Ġconf l
Ġcomplain ing
Ġcub es
Ġmeow s
Ġvi br
Ġdemand ed
Ġwid er
Ġchef s
Ann ie
Ġsigh s
Ġdrift ed
Ġpadd led
Ġbegin ning
Ġgreet ed
Ġscru bbed
ĠBer nie
Ġphot os
Ġhambur ger
Ġdar ling
Ġgon na
Ġgarb age
Ġeag le
A d
B arney
D ucky
E w
G reat
M imi
N ina
T ina
c l
e al
f ive
h ins
i xture
o dy
t uce
w eed
y es
y nn
z zy
Ë ľ
Ġa st
Ġw oof
Ġto aster
Ġh i
Ġh itting
Ġc oup
Ġm unch
Ġm ixture
Ġwas ted
il ities
Ġg ross
Ġg az
id s
id ing
Ġsa le
an s
an es
ut t
Ġe ch
Ġy um
nt il
Ġpl ug
Ġso bbed
ĠB ecause
ĠB essie
ch ild
Ġnot es
ĠM o
ĠM ichael
Ġne ither
ter s
Ġse agull
ind r
art y
ĠW atch
Ġro ars
ong o
Ġag e
ie ce
âĤ¬ Ëľ
ĠL uckily
ĠL isten
ĠL ulu
ĠL ynn
Ġfl as
Ġsw irl
Ġta pped
ĠF ido
ĠC la
Ġra cc
Ġra indr
Ġte asing
Ġlet tuce
Ġdoll ars
Ġfin al
Ġfore head
Ġwr ist
Ġsto len
Ġcolor ing
Ġbed time
Ġde ed
Ġrepl aced
Ġblock ing
Ġgrass y
ĠR ay
ĠR ob
ĠR obby
Ġbit s
ĠDo ggy
Ġcra shing
Ġbus iness
Ġtop s
ĠAs h
Ġlesson s
sh aped
Ġpet ted
ott ie
Ġsail s
Ġsign ed
Ġnap kins
Ġcoll ap
Ġbee h
Ġheal ing
Ġsister s
Ġsea weed
Ġforget ting
Ġdist ract
Ġbat t
ĠFl ower
Ġdriver s
Ġgrand child
ĠZ ip
ĠZ ipper
ĠCh loe
Ġav o
Ġguess ing
Ġcryst als
Ġdolp hins
Ġjewel ry
Ġdeliver ed
Ġbury ing
ĠUn fortunately
Ġnotebook s
Ġstom ped
Ġobject s
Ġpun ish
Ġgrocer ies
Ġflutter ing
Ġinclud ing
Ġpupp ies
Ġadmir ation
Ġ1 7
Ġincre ased
Mar ia
Ġtim er
Ġforgi ven
ĠOl ive
Qu ick
Ġrefle ction
Ġwrink led
Ġvibr ant
Ġcoup le
Ġgaz ing
Ġracc oon
A N
D og
F r
H enry
I ON
M ilo
P e
S andy
T r
W he
W oof
b and
d ress
o d
o or
o llen
s m
s ie
v est
w are
Ġ Yes
Ġ âĢ
Ġb oo
in itely
Ġm oo
Ġn ine
ĠS im
ĠS lowly
ĠS queak
im mer
Ġth ud
ĠH olly
ĠH alf
ot ch
ver s
ow s
Ġr ising
ri a
ad s
st r
Ġfor ce
un e
Ġsh oo
Ġdo d
ĠM el
Ġre pa
Ġre ason
Ġse vent
ĠA bby
Ġca used
Ġsc am
Ġfe ver
ep t
Ġfl ick
Ġsw ollen
Ġsw ept
ĠE d
Ġwill ing
Ġdad s
Ġpo ems
Ġsl ips
Ġhand ful
ma nda
Ġtw enty
ace y
Ġsk unk
ĠEvery body
Ġsn ort
Ġwo bbled
Åĵ Hi
ĠP et
Ġwr igg
Ġexplore rs
ĠG ogo
ac les
per ature
Ġafter wards
Ġwork ers
Ġour selves
Ġlea st
Ġhair s
Ġhair dress
Ġsmell ing
Ġdark er
Ġfair ies
ash a
Ġtight er
av id
Ġmar ve
Ġpol ar
Ġspark s
Ġcream y
Ġstar fish
Ġpro ject
Ġjoin ing
Ġhig hest
Ġbasket s
ho g
ĠO ur
umb ling
Ġpeace fully
Ġband ages
ĠFl opsy
Good night
Ġdrive way
Ġrobot s
Ġtest ing
Ġsort ed
ĠOn ly
Ġclown s
Ġstream ers
Ġfrown s
Ġfrown ing
Ġneckl aces
Ġtem perature
Ġbatter ies
Ġprep aring
Ġintellig ence
Ġhall s
ĠOr ange
Ġstri ke
Ġcop y
Ġstack ed
Ġart ist
Ġrepe ating
Ġminer als
Ġbase ment
ÅĵYou Ã¢
Ġsew ed
ĠSnow man
Ġstud ents
Ġsurround ings
ĠGood bye
Ġsuperhero es
Ġrequest ed
ĠLiz a
Ġwag ging
Ġswims uit
Ġscur ry
Ġadult s
Ġgrowl s
Un fortunately
Ġseashell s
Ġdrag ons
Ġrisk s
Ġtang led
Ġcous in
Ġnuzz led
Ġwadd led
Ġnibb led
Ġraindr ops
ĠAsh ley
Ġbeeh ive
Ġrepa ired
Ġhairdress er
A L
C urious
H ave
H annah
N emo
P ut
P ip
P oppy
P enny
S ophie
e edy
i asm
o pper
p lease
p iece
s ure
u ild
Ġ ouch
he llo
Ġs igning
in ty
Ġh und
Ġc ongratul
Ġl ung
Ġd ou
Ġhe el
Ġhe av
il ity
Ġg ap
Ġn i
Ġn ood
on se
ĠH oney
Ġin j
Ġu nd
ad ing
Ġso fter
Ġwe pt
ĠB as
ĠB oth
ĠB ongo
ĠM ouse
ĠM arty
Ġlo gs
Ġsp at
ind a
ic ers
ark y
Ġca using
Ġsc ri
Ġbr u
ĠW in
ĠL inda
Ġwho se
Ġfl at
ara c
Ġch anging
Ġch arac
Ġpa jam
ĠF an
ĠF ire
ĠF uzzy
Ġtr amp
Ġoff icers
uc as
ĠSo cky
Ġwo bble
Ġlet Ã¢
Åĵ Well
ĠP in
Ġdan gers
ĠSp eedy
Ġnear ly
Ġhop s
Ġsound ly
Ġac he
Ġgrass ho
Ġsing ers
Ġtall est
ĠK yle
Ġcount s
Ġtail s
Ġplan s
Ġpaint brush
Ġteac hes
Ġbuck led
Ġstreet s
ĠO p
Ġresp onse
Ġfit s
Ġpan s
Ġpan icked
Ġimag ining
Ġcoo per
era ld
Ġsour ce
Ġtick ing
Ġdeterm ination
Ġthick er
Ġtent acles
Ġjack ets
ĠMar cus
Ġstat ues
Ġperform ed
Ġpump kins
ĠFin n
Ġcheap er
ĠU ntil
Ġspell s
Ġwindows ill
Ġlollipop s
Ġtravel s
Ġneat ly
Ġpost man
ret ty
Ġbuzz ed
Ġbackpack s
ĠPaul a
Ġbur st
Ġimpro ved
Ġenthus iasm
ĠRo ger
Ġquarrel ing
Ġexerc ises
Ġsurf board
Ġsix ty
Ġyield ed
Ġrow s
Ġprop er
Ġped als
Al ways
Ġwid ened
Ro ar
Ġtremb led
Ġsway ing
ĠX en
ĠNot hing
Ġrust y
Ġrust ling
Ġgrant ed
ĠAd am
Bl ue
Ġconv ince
Ġtravell ed
Ġcorre ct
Ġti pt
Ġfirm ly
Ġslam med
Ġthorn s
Ġinsp ired
Ġdef initely
Ġwobb ly
Ġswall owed
Ġconfl ict
Ġavo id
Ġhund red
ĠBas ics
Ġpajam as
Ġtramp oline
Ġgrassho pper
? '
G eorge
I L
I N
K im
O U
O ur
P at
R achel
S adly
a ven
b ra
c ie
c used
f orm
g g
l ine
m it
o ke
p s
t her
w e
w hile
Ġ ill
Ġt in
Ġt uck
Ġt igers
Ġto dd
in ny
Ġh us
Ġc otton
Ġl un
Ġl ower
Ġd ama
Ġm es
Ġp ens
ĠT ammy
ar row
ing ly
Ġg est
id night
Ġn in
Ġn ur
Ġn apping
ĠS ix
an ced
et ention
Ġy el
ig hing
Ġr out
Ġr ipe
Ġbe ads
ĠI zzy
pp ers
ri ver
Ġplay room
Ġfor ty
ĠB ounce
el ine
ch y
ĠM idnight
Ġne are
Ġas ide
ĠA bbie
Ġsp ins
Ġex cept
ĠJ ones
Ġle ver
Ġsc en
Ġal though
Ġfe ars
ĠL arry
ĠL ucas
Ġch uck
Ġsw ap
ĠE rin
ĠD avid
us hing
Ġta ped
Ġsn uggle
em pt
Ġfo cused
Ġbra vest
ĠJo die
Åĵ But
Åĵ Now
Ġcon cer
Ġsto pping
Ġun ited
per ture
Ġapp ears
Ġforest s
Ġprin ting
Ġswim mer
Ġsho ots
Ġslow er
Ġtable s
Ġrel ief
ĠK elly
Ġcand ies
Ġunderstand s
Ġtri cked
Ġfight s
Ġgrow s
Ġquiet er
ott a
ott en
Ġplant ing
Ġbelie ving
Ġbath s
Ġatt empt
Ġpurp ose
Ġwouldn Ã¢
Ġforget s
Ġcow b
Ġresp ond
Ġhope ful
Ġble nder
Ġboun ces
Ġmyster ies
sc otch
Ġgrand son
Ġshr ug
Ġser v
St ay
St ill
ĠEll e
Ġfoot step
Ġstret ches
Ġwis hing
Ġcross ing
Ġcrown s
Ġpass en
Ġvan illa
Ġpay s
Ġcaterpill ars
Ġref use
Ġtem pt
Ġtunn els
Ġlibr arian
Ġrep ly
Ġencou rag
Ġfilm s
ĠBun Bun
Ġcamp ing
ĠPat ches
Ġdeliver ing
Ġcop s
Ġhedge hog
ÅĵWhat Ã¢
Ġluck ily
Ġsecond s
Ġinsist ing
Ġpress es
Ġlangu ages
Ġdisag ree
Ġdiscu ssed
Ġpur r
Ġpur rs
Ġlick ing
Ġbrus hing
Ġtrave led
Ġfiref ly
Ġ1 0
Ġfamil iar
Ġwarn ings
Ġmateri al
Ġnovel s
rr r
Ġforgi ving
Ġparticular ly
Ġvide os
Ġdeser ve
Ġtouc hes
Ġheadcra bs
Ġsquish y
Ġfif ty
Ġcent er
Ġsan k
Ġscam pered
Ġscurry ing
Ġtodd ler
Ġhus band
Ġdama ged
Ġmes mer
Ġyel ped
Ġfootstep s
A unt
D anny
E S
G otta
I T
J oy
J eff
J amie
M illy
N et
O ops
S n
S anta
T HE
W h
W ake
W atch
b oo
c ent
c oon
l ake
l ves
m s
m el
r ig
z o
Ġ Q
Ġt il
Ġa im
Ġa imed
Ġs ill
Ġs ens
ed s
Ġto ssed
in er
re w
re y
Ġwa kes
Ġf aded
it ude
Ġc ert
Ġd ot
Ġhe ight
Ġm ir
Ġp uck
ĠT aking
Ġo cc
ing u
il ver
ĠS atur
ĠS ilver
an cy
Ġth ir
ĠH oot
ĠH EC
ĠH opper
Ġr otten
Ġst all
Ġst ool
Ġst ern
Ġwith in
Ġyou nger
ad ley
Ġthat Ã¢
st ick
ound s
ĠM ira
ĠM inty
Ġre b
Ġre app
riend s
Ġlo cks
ĠA ria
ĠA manda
Ġsp ikes
Ġsp ices
um by
Ġhelp ers
Ġca sh
Ġman ners
ĠW elcome
Ġwor st
Ġran cher
Ġco sy
Ġco pper
Ġco coon
ĠL ion
ĠL ove
Ġfl own
Ġch op
Ġch arge
Ġsw itched
Ġgra bbing
Ġab ilities
ĠF ier
Ġwater ing
Ġwater mel
Mom o
Ġsmall est
ĠC ity
Ġgarden s
Åĵ The
Åĵ Hey
Åĵ My
ĠP hil
Ġfin ishing
Let Ã¢
Ġwind s
Ġclean er
ac le
ĠN ell
Ġrain s
Ġam used
ĠR avi
Ġrest ored
Ġduck ling
Ġcr ops
ĠJane y
sh ip
sh irt
Ġru ining
Ġdream t
Ġfill s
Ġslow ed
Ġcreat iv
ĠK aren
os ite
ĠJen na
Ġtalk s
ugg ing
me al
Ġgu ards
Ġmin ts
Ġpot ion
Ġdry er
Ġdes pite
Ġpres chool
Ġlift s
Ġact ion
ÅĵI f
Ġign oring
Ġhon ked
Ġhum ming
Ġfil es
Ġorgan izing
Ġtest s
Ġple aded
Ġsel f
Ġpray ers
Sp ike
ĠSt ar
ĠSt ill
Ġexam ining
Ġpass es
Ġaw oke
Ġsell er
ĠNo body
Ġflag s
Ġoat meal
Ġwhisper ing
Ġexper i
Ġghost s
Ġsle igh
Ġswe aty
Ġdisturb ing
Ġcompl ained
Ġbracelet s
Ġwigg ly
Ġappreci ated
ĠRo bbie
Ġstrugg le
Ġsuff ered
Ġtwink le
Ġinst antly
ĠV ery
Ġfloat s
ĠBo zo
Ġstomach s
Ġspit s
ĠBuzz ie
Ġeight y
Ġwag ons
Ġdet ention
Ġchat ted
ĠMay a
ĠFro ggy
Ġty pe
ĠOl iver
Ġexpect ing
ĠBir thday
Ġconv in
Ġcorre ctly
Ġvide o
Ġtalent ed
Ġsurv ive
Ġcal med
Ġmate y
Ġmaster piece
Ġconn ected
Ġdefe ated
Ġali ens
Ġsnowf lake
Ġcustom er
Play time
Surpr ise
Ġopp osite
Ad am
Ġech oed
Whe e
immer ing
Ġsevent y
Ġmarve led
Ġcongratul ated
Ġtipt oed
IN G
Ġnin ety
Ġnur ses
Ġchuck led
ĠSatur day
Ġthir ty
ĠHEC U
ĠFier ce
Ġwatermel on
Ġcreativ ity
' ,
B oo
C ar
E D
E ven
G et
H alf
J erry
K atie
L iz
L ike
L izzie
M at
M iss
M ichael
R uby
R osie
S ince
Z ero
a ly
b ut
b um
b ro
d ies
d river
e bs
f ree
f ather
f ire
g r
i k
i hil
k er
l ings
l ish
m ates
o ver
p ic
u pt
w ise
y ler
Ġ 9
Ġt ar
Ġt iss
Ġt ips
Ġs y
Ġb less
Ġb itten
it s
Ġl ent
Ġl ush
Ġd arl
er ms
Ġp oun
ĠT una
ĠT igers
ar mer
Ġsa v
ĠS c
ĠS ir
ĠS un
ĠS plash
ĠS asha
an ion
an ces
or ter
le iner
Ġher mit
ĠShe lly
es pite
oo king
Ġr ather
Ġst y
Ġst ain
Ġst eth
Ġst itches
ad ually
ad die
Ġpl ain
st y
Ġup side
Ġwe e
Ġmom mies
Ġsh in
ent ly
end ed
ly x
Ġk ittens
ĠM an
ĠM uff
ĠM ason
al ter
Ġas s
Ġbo dies
ic a
Ġkn ots
Ġsc utt
Ġal bum
Ġfe ast
ĠW ater
Ġsomet ime
Ġwor n
âĤ¬ ,
if i
ĠL uke
Ġfl ock
ĠE lp
as ion
Ġbl ob
Ġbl ast
us ion
ant h
Ġpo sit
bb ey
ĠF ifi
Ġint rig
Ġpe ppers
Ġmo ons
Ġtr ough
Ġqu ilt
Ġen emy
Ġsn uck
Ġlong est
Ġbea st
ĠC able
Ġdon key
Ġte aring
be e
ĠJo sh
Ġche ers
Ġche ated
Ġgl ared
ĠP ipp
ĠP ingu
When ever
Ġdoor way
Ġdoor bell
Ġwind y
Ġreal izes
Ġun fortunately
Ġun sure
Ġgreat est
Ġremember ing
Ġdress er
Ġdis o
Ġsweet est
ĠDo g
Ġcra ft
Ġcra cks
Ġfire s
Ġpu ff
Ġtast ing
Ġthrough out
Ġprom ises
Ġste ady
Ġcold er
Ġset s
Ġarm or
ĠK ay
ĠK ait
ĠK leiner
Ġcomp anion
Ġhor ror
Ġpol itely
Ġgrate fully
Ġnap s
Ġheart bro
ĠO xy
Ġinv ites
ĠThank s
ĠFl oppy
unt s
Ġban ged
Ġgrand father
Ġexp ress
Bob o
Ġstorm s
In stead
ĠWith out
Ġcalm ly
ĠCh icky
Ġtrust s
Ġteam s
Ġgener osity
ĠBe cky
illi am
Ġapolog ised
Ġglass es
ĠMar ble
Ġlead s
Ġsquee zing
Ġdesign s
Ġdesign er
Ġcudd les
Ġer ase
ye ars
ĠTr ust
Ġunl ike
Ġbull ies
Ġhuman s
Ġengine er
Ġcobw ebs
Ġspeed ing
Ġchalk board
Ġsend ing
Ġshovel s
Ġmug s
Ġunpack ing
Ġbeep ing
Ġobser ving
Ġcompl iment
Ġmagaz ines
Ġrepair man
Ġscrew driver
Ġsprink led
Ch irp
Ġbreat hed
Ġsurrender ed
Ġrefre shing
Ġlend ing
Ġsub ject
ĠChr is
Ġvehic les
ĠPut u
ĠGr anny
Ġpupil s
Ġdet ect
Ġhesit ated
ĠFro g
Ġpeel ed
Un cle
ĠDr umby
Ġnightmare s
Tweet y
ĠBir dy
Ġchoo ses
jam in
Ġflav or
Ġcons ider
Jul ie
Ġearn ed
Ġrobb er
Ġaff ord
Ġbehavi or
ĠOw en
Ġscra ped
Ġmunch ing
Ġbatt le
Tr ue
ĠâĢ ĵ
ĠMel ody
ĠOrange y
Ġdou ble
Ġni bble
ĠPin chy
Ġlun gs
Ġneare st
Ġcowb oys
Ġshrug s
Ġencourag ing
Ġmesmer ized
Ġcert ain
Ġreb uild
Ġcash ier
Ġconvin ced
ik i
ihil anth
Ġtar get
Ġdarl ings
Ġsteth os
ĠMuff in
ĠPipp a
ĠKait lyn
Ġheartbro ken
- -
? !"
D ear
D anger
D etention
E N
E ach
F red
G u
M ay
M ira
O R
R alph
T oo
T illy
Y ummy
a ut
b ank
b ird
e ight
f our
i el
l ied
m unk
n o
n ine
p an
r ing
r iting
s ix
t wo
Ġ 4
Ġ 5
Ġw ig
nd s
Ġb uddy
in o
Ġh oo
Ġh our
Ġf ain
Ġc uc
Ġd ump
Ġd em
er g
er be
